{
  "version": "1.0",
  "truncation": null,
  "padding": null,
  "added_tokens": [
    {
      "id": 0,
      "content": "[PAD]",
      "single_word": false,
      "lstrip": false,
      "rstrip": false,
      "normalized": false,
      "special": true
    },
    {
      "id": 1,
      "content": "[UNK]",
      "single_word": false,
      "lstrip": false,
      "rstrip": false,
      "normalized": false,
      "special": true
    },
    {
      "id": 2,
      "content": "[CLS]",
      "single_word": false,
      "lstrip": false,
      "rstrip": false,
      "normalized": false,
      "special": true
    },
    {
      "id": 3,
      "content": "[SEP]",
      "single_word": false,
      "lstrip": false,
      "rstrip": false,
      "normalized": false,
      "special": true
    },
    {
      "id": 4,
      "content": "[MASK]",
      "single_word": false,
      "lstrip": false,
      "rstrip": false,
      "normalized": false,
      "special": true
    }
  ],
  "normalizer": {
    "type": "BertNormalizer",
    "clean_text": true,
    "handle_chinese_chars": false,
    "strip_accents": false,
    "lowercase": false
  },
  "pre_tokenizer": {
    "type": "BertPreTokenizer"
  },
  "post_processor": {
    "type": "TemplateProcessing",
    "single": [
      {
        "SpecialToken": {
          "id": "[CLS]",
          "type_id": 0
        }
      },
      {
        "Sequence": {
          "id": "A",
          "type_id": 0
        }
      },
      {
        "SpecialToken": {
          "id": "[SEP]",
          "type_id": 0
        }
      }
    ],
    "pair": [
      {
        "SpecialToken": {
          "id": "[CLS]",
          "type_id": 0
        }
      },
      {
        "Sequence": {
          "id": "A",
          "type_id": 0
        }
      },
      {
        "SpecialToken": {
          "id": "[SEP]",
          "type_id": 0
        }
      },
      {
        "Sequence": {
          "id": "B",
          "type_id": 1
        }
      },
      {
        "SpecialToken": {
          "id": "[SEP]",
          "type_id": 1
        }
      }
    ],
    "special_tokens": {
      "[CLS]": {
        "id": "[CLS]",
        "ids": [
          2
        ],
        "tokens": [
          "[CLS]"
        ]
      },
      "[SEP]": {
        "id": "[SEP]",
        "ids": [
          3
        ],
        "tokens": [
          "[SEP]"
        ]
      }
    }
  },
  "decoder": {
    "type": "WordPiece",
    "prefix": "##",
    "cleanup": true
  },
  "model": {
    "type": "WordPiece",
    "unk_token": "[UNK]",
    "continuing_subword_prefix": "##",
    "max_input_chars_per_word": 100,
    "vocab": {
      "[PAD]": 0,
      "[UNK]": 1,
      "[CLS]": 2,
      "[SEP]": 3,
      "[MASK]": 4,
      "cg19722847": 5,
      "cg22736354": 6,
      "cg01511567": 7,
      "cg26394940": 8,
      "cg00398048": 9,
      "cg22947000": 10,
      "cg26610808": 11,
      "cg14519515": 12,
      "cg13269407": 13,
      "cg12774845": 14,
      "cg17421623": 15,
      "cg12373771": 16,
      "cg15804973": 17,
      "cg14377791": 18,
      "cg20240860": 19,
      "cg14244577": 20,
      "cg06041363": 21,
      "cg04528819": 22,
      "cg20938359": 23,
      "cg24058132": 24,
      "cg15195412": 25,
      "cg14155397": 26,
      "cg15201877": 27,
      "cg13547237": 28,
      "cg21120249": 29,
      "cg06638433": 30,
      "cg27169020": 31,
      "cg00426498": 32,
      "cg06493994": 33,
      "cg01684579": 34,
      "cg06291867": 35,
      "cg03156547": 36,
      "cg09427311": 37,
      "cg24056567": 38,
      "cg12167564": 39,
      "cg16273597": 40,
      "cg03991512": 41,
      "cg26581729": 42,
      "cg09706243": 43,
      "cg16399745": 44,
      "cg07258507": 45,
      "cg05449607": 46,
      "cg10872209": 47,
      "cg16474684": 48,
      "cg04084157": 49,
      "cg09656934": 50,
      "cg20264732": 51,
      "cg14646244": 52,
      "cg13828047": 53,
      "cg24854010": 54,
      "cg14289461": 55,
      "cg10893437": 56,
      "cg00340102": 57,
      "cg05266781": 58,
      "cg11223252": 59,
      "cg07621046": 60,
      "cg09419900": 61,
      "cg08695830": 62,
      "cg17385448": 63,
      "cg04460372": 64,
      "cg06656924": 65,
      "cg09523691": 66,
      "cg25711779": 67,
      "cg19556572": 68,
      "cg11919694": 69,
      "cg02828104": 70,
      "cg18328933": 71,
      "cg27015931": 72,
      "cg07141002": 73,
      "cg17133388": 74,
      "cg04474832": 75,
      "cg20692569": 76,
      "cg12163132": 77,
      "cg05600717": 78,
      "cg19945840": 79,
      "cg22613010": 80,
      "cg04464446": 81,
      "cg00657095": 82,
      "cg09244244": 83,
      "cg10784813": 84,
      "cg25044651": 85,
      "cg09558502": 86,
      "cg10467098": 87,
      "cg19853760": 88,
      "cg22197830": 89,
      "cg03330058": 90,
      "cg10660256": 91,
      "cg01464985": 92,
      "cg17465631": 93,
      "cg24642523": 94,
      "cg25771195": 95,
      "cg14918082": 96,
      "cg20857253": 97,
      "cg00659129": 98,
      "cg10084993": 99,
      "cg21296230": 100,
      "cg25766046": 101,
      "cg10266490": 102,
      "cg11456838": 103,
      "cg12810837": 104,
      "cg00660989": 105,
      "cg08872742": 106,
      "cg16585619": 107,
      "cg22584138": 108,
      "cg03802191": 109,
      "cg27552599": 110,
      "cg15439862": 111,
      "cg01044662": 112,
      "cg17655614": 113,
      "cg05995267": 114,
      "cg04637372": 115,
      "cg12688670": 116,
      "cg26453588": 117,
      "cg05257610": 118,
      "cg24080529": 119,
      "cg08137040": 120,
      "cg03177025": 121,
      "cg22580512": 122,
      "cg12554573": 123,
      "cg12827555": 124,
      "cg25682080": 125,
      "cg14483391": 126,
      "cg15537850": 127,
      "cg06311778": 128,
      "cg12758687": 129,
      "cg02782630": 130,
      "cg11832722": 131,
      "cg22815110": 132,
      "cg22820108": 133,
      "cg25655096": 134,
      "cg01762581": 135,
      "cg01594262": 136,
      "cg02681442": 137,
      "cg10523019": 138,
      "cg25166896": 139,
      "cg02840794": 140,
      "cg04036898": 141,
      "cg24899750": 142,
      "cg17166812": 143,
      "cg20385229": 144,
      "cg11384427": 145,
      "cg08833432": 146,
      "cg15736165": 147,
      "cg19586576": 148,
      "cg10057295": 149,
      "cg17791651": 150,
      "cg03365437": 151,
      "cg18638931": 152,
      "cg03975694": 153,
      "cg09118625": 154,
      "cg19587887": 155,
      "cg23124451": 156,
      "cg14127659": 157,
      "cg11521325": 158,
      "cg02712165": 159,
      "cg23452458": 160,
      "cg04459030": 161,
      "cg26426582": 162,
      "cg03641225": 163,
      "cg02016419": 164,
      "cg22956254": 165,
      "cg15452204": 166,
      "cg17067942": 167,
      "cg15121304": 168,
      "cg24170090": 169,
      "cg27038439": 170,
      "cg09084200": 171,
      "cg10235741": 172,
      "cg08655844": 173,
      "cg24556026": 174,
      "cg02077702": 175,
      "cg00075967": 176,
      "cg26202340": 177,
      "cg17966192": 178,
      "cg11787522": 179,
      "cg07935568": 180,
      "cg09837169": 181,
      "cg19219503": 182,
      "cg16540259": 183,
      "cg10375110": 184,
      "cg22971191": 185,
      "cg25421002": 186,
      "cg09133026": 187,
      "cg09313705": 188,
      "cg03163246": 189,
      "cg14951292": 190,
      "cg23855989": 191,
      "cg22901840": 192,
      "cg10878896": 193,
      "cg10935723": 194,
      "cg14404298": 195,
      "cg17471102": 196,
      "cg04809787": 197,
      "cg01154193": 198,
      "cg11341028": 199,
      "cg12343777": 200,
      "cg22356117": 201,
      "cg06268694": 202,
      "cg03459809": 203,
      "cg23301687": 204,
      "cg25511429": 205,
      "cg11017269": 206,
      "cg21745164": 207,
      "cg15727320": 208,
      "cg17861230": 209,
      "cg19795898": 210,
      "cg06039392": 211,
      "cg24389347": 212,
      "cg05266460": 213,
      "cg21096966": 214,
      "cg12575181": 215,
      "cg21801378": 216,
      "cg01129459": 217,
      "cg20789691": 218,
      "cg13488201": 219,
      "cg17067005": 220,
      "cg20747455": 221,
      "cg15534366": 222,
      "cg20261915": 223,
      "cg15422784": 224,
      "cg07588779": 225,
      "cg16036738": 226,
      "cg21438018": 227,
      "cg21201109": 228,
      "cg07957491": 229,
      "cg18236477": 230,
      "cg20300246": 231,
      "cg05812599": 232,
      "cg21402071": 233,
      "cg03160135": 234,
      "cg26233529": 235,
      "cg18168989": 236,
      "cg19761273": 237,
      "cg13590277": 238,
      "cg21184174": 239,
      "cg23679724": 240,
      "cg03602500": 241,
      "cg24713204": 242,
      "cg15765694": 243,
      "cg20630655": 244,
      "cg13673514": 245,
      "cg18691434": 246,
      "cg18003698": 247,
      "cg22066521": 248,
      "cg24008892": 249,
      "cg16612562": 250,
      "cg25374854": 251,
      "cg15799267": 252,
      "cg13282837": 253,
      "cg05190718": 254,
      "cg17832674": 255,
      "cg11344614": 256,
      "cg06824727": 257,
      "cg02008154": 258,
      "cg08587542": 259,
      "cg04975920": 260,
      "cg16632715": 261,
      "cg27120999": 262,
      "cg17497271": 263,
      "cg00702729": 264,
      "cg07158339": 265,
      "cg08723608": 266,
      "cg11761535": 267,
      "cg12308275": 268,
      "cg27223047": 269,
      "cg00431050": 270,
      "cg04999691": 271,
      "cg14892768": 272,
      "cg15988232": 273,
      "cg09949775": 274,
      "cg18433086": 275,
      "cg02844545": 276,
      "cg24650394": 277,
      "cg15737168": 278,
      "cg24768561": 279,
      "cg25809905": 280,
      "cg26845278": 281,
      "cg02275294": 282,
      "cg16483916": 283,
      "cg23973566": 284,
      "cg17806989": 285,
      "cg02655623": 286,
      "cg09354331": 287,
      "cg04431054": 288,
      "cg25680829": 289,
      "cg22476251": 290,
      "cg01459453": 291,
      "cg12830694": 292,
      "cg27625732": 293,
      "cg16853982": 294,
      "cg05168404": 295,
      "cg17729667": 296,
      "cg26170257": 297,
      "cg07684796": 298,
      "cg22884082": 299,
      "cg02919422": 300,
      "cg03821311": 301,
      "cg03775246": 302,
      "cg04376312": 303,
      "cg27398499": 304,
      "cg10106284": 305,
      "cg13448625": 306,
      "cg23581186": 307,
      "cg18894878": 308,
      "cg27542948": 309,
      "cg06585108": 310,
      "cg20017995": 311,
      "cg19481686": 312,
      "cg15171237": 313,
      "cg21818252": 314,
      "cg24887211": 315,
      "cg22395019": 316,
      "cg09222115": 317,
      "cg27560864": 318,
      "cg23404467": 319,
      "cg03014680": 320,
      "cg27226214": 321,
      "cg20162146": 322,
      "cg03958979": 323,
      "cg03582451": 324,
      "cg06667091": 325,
      "cg01885635": 326,
      "cg04991337": 327,
      "cg15425280": 328,
      "cg02630207": 329,
      "cg11668512": 330,
      "cg02117021": 331,
      "cg09191626": 332,
      "cg07705835": 333,
      "cg02423618": 334,
      "cg06493386": 335,
      "cg06919203": 336,
      "cg04616566": 337,
      "cg00201234": 338,
      "cg06768707": 339,
      "cg19352038": 340,
      "cg06462703": 341,
      "cg00062776": 342,
      "cg05679613": 343,
      "cg24274600": 344,
      "cg26729026": 345,
      "cg18486150": 346,
      "cg08377000": 347,
      "cg19854301": 348,
      "cg16192029": 349,
      "cg12385425": 350,
      "cg23843505": 351,
      "cg10059959": 352,
      "cg14741922": 353,
      "cg18632631": 354,
      "cg12564453": 355,
      "cg08886154": 356,
      "cg25829729": 357,
      "cg25340403": 358,
      "cg16356516": 359,
      "cg10938486": 360,
      "cg26764555": 361,
      "cg11504646": 362,
      "cg17281600": 363,
      "cg12683929": 364,
      "cg09809672": 365,
      "cg04039397": 366,
      "cg03945800": 367,
      "cg18354264": 368,
      "cg13849825": 369,
      "cg07091552": 370,
      "cg13463167": 371,
      "cg13908518": 372,
      "cg05379350": 373,
      "cg22927134": 374,
      "cg24414383": 375,
      "cg05782292": 376,
      "cg17199658": 377,
      "cg09424308": 378,
      "cg11148307": 379,
      "cg24445405": 380,
      "cg16319578": 381,
      "cg26365668": 382,
      "cg20162076": 383,
      "cg23274244": 384,
      "cg17522601": 385,
      "cg01747191": 386,
      "cg19091641": 387,
      "cg01216369": 388,
      "cg07297178": 389,
      "cg13379236": 390,
      "cg16747567": 391,
      "cg00951770": 392,
      "cg25499099": 393,
      "cg16984944": 394,
      "cg05965188": 395,
      "cg01668383": 396,
      "cg07337598": 397,
      "cg03891319": 398,
      "cg24311282": 399,
      "cg12216205": 400,
      "cg01407797": 401,
      "cg13442811": 402,
      "cg17229388": 403,
      "cg26896762": 404,
      "cg07080946": 405,
      "cg12991341": 406,
      "cg16575408": 407,
      "cg14758526": 408,
      "cg14315198": 409,
      "cg16313343": 410,
      "cg14371329": 411,
      "cg04201347": 412,
      "cg12337114": 413,
      "cg27025856": 414,
      "cg03103192": 415,
      "cg09637363": 416,
      "cg22234962": 417,
      "cg25172835": 418,
      "cg08640498": 419,
      "cg18412984": 420,
      "cg20399252": 421,
      "cg23504707": 422,
      "cg06500476": 423,
      "cg13247990": 424,
      "cg11128808": 425,
      "cg01827098": 426,
      "cg20595215": 427,
      "cg07703401": 428,
      "cg13210534": 429,
      "cg27147004": 430,
      "cg26294551": 431,
      "cg13605579": 432,
      "cg18669588": 433,
      "cg02955504": 434,
      "cg07232688": 435,
      "cg22572779": 436,
      "cg27114026": 437,
      "cg05960024": 438,
      "cg02789485": 439,
      "cg19189291": 440,
      "cg13083810": 441,
      "cg26527984": 442,
      "cg01615704": 443,
      "cg13140267": 444,
      "cg19099213": 445,
      "cg20697204": 446,
      "cg21372914": 447,
      "cg06746171": 448,
      "cg25095951": 449,
      "cg23843812": 450,
      "cg00098162": 451,
      "cg05135288": 452,
      "cg25007250": 453,
      "cg12422450": 454,
      "cg24400943": 455,
      "cg11668844": 456,
      "cg24812167": 457,
      "cg15120942": 458,
      "cg18509435": 459,
      "cg13931228": 460,
      "cg14294758": 461,
      "cg10753073": 462,
      "cg00008493": 463,
      "cg14116596": 464,
      "cg13603171": 465,
      "cg02475653": 466,
      "cg25665697": 467,
      "cg01546430": 468,
      "cg25612145": 469,
      "cg09394600": 470,
      "cg09045681": 471,
      "cg10976172": 472,
      "cg19695867": 473,
      "cg21134096": 474,
      "cg17502536": 475,
      "cg24076830": 476,
      "cg13410437": 477,
      "cg19948397": 478,
      "cg07512345": 479,
      "cg08554114": 480,
      "cg08789630": 481,
      "cg00904483": 482,
      "cg26750002": 483,
      "cg22161874": 484,
      "cg06874144": 485,
      "cg27083787": 486,
      "cg05500074": 487,
      "cg21787280": 488,
      "cg06506864": 489,
      "cg15142488": 490,
      "cg13249256": 491,
      "cg26523005": 492,
      "cg17791617": 493,
      "cg18495563": 494,
      "cg18056600": 495,
      "cg06521761": 496,
      "cg20083676": 497,
      "cg15028436": 498,
      "cg18913171": 499,
      "cg26147480": 500,
      "cg11759378": 501,
      "cg23737768": 502,
      "cg00418150": 503,
      "cg21906716": 504,
      "cg01297972": 505,
      "cg13745870": 506,
      "cg09688546": 507,
      "cg15261665": 508,
      "cg02932167": 509,
      "cg18992201": 510,
      "cg06577725": 511,
      "cg22968401": 512,
      "cg03908676": 513,
      "cg03924115": 514,
      "cg09173897": 515,
      "cg00651216": 516,
      "cg19093820": 517,
      "cg16133244": 518,
      "cg18752880": 519,
      "cg21378206": 520,
      "cg26018901": 521,
      "cg08072716": 522,
      "cg14093936": 523,
      "cg00107187": 524,
      "cg15522957": 525,
      "cg25229172": 526,
      "cg08315277": 527,
      "cg17830308": 528,
      "cg15307268": 529,
      "cg11856697": 530,
      "cg17692403": 531,
      "cg09470640": 532,
      "cg04409427": 533,
      "cg23967169": 534,
      "cg13697378": 535,
      "cg12188416": 536,
      "cg26196700": 537,
      "cg10707565": 538,
      "cg08335125": 539,
      "cg01697732": 540,
      "cg10938286": 541,
      "cg24974599": 542,
      "cg26128092": 543,
      "cg02862362": 544,
      "cg02602411": 545,
      "cg11846236": 546,
      "cg08611205": 547,
      "cg02309431": 548,
      "cg14633704": 549,
      "cg15937958": 550,
      "cg22139563": 551,
      "cg16357381": 552,
      "cg01605517": 553,
      "cg16786458": 554,
      "cg12274567": 555,
      "cg15736336": 556,
      "cg13881341": 557,
      "cg07426960": 558,
      "cg15301694": 559,
      "cg23566335": 560,
      "cg20761322": 561,
      "cg19620294": 562,
      "cg18441959": 563,
      "cg09011597": 564,
      "cg09453312": 565,
      "cg02044161": 566,
      "cg19947621": 567,
      "cg06320982": 568,
      "cg00551244": 569,
      "cg05732530": 570,
      "cg21808053": 571,
      "cg14732540": 572,
      "cg12095491": 573,
      "cg08315770": 574,
      "cg08897388": 575,
      "cg06490951": 576,
      "cg10479672": 577,
      "cg07924575": 578,
      "cg14409083": 579,
      "cg10997248": 580,
      "cg12795208": 581,
      "cg27443224": 582,
      "cg23901896": 583,
      "cg20573420": 584,
      "cg25984124": 585,
      "cg11010122": 586,
      "cg02882813": 587,
      "cg22836229": 588,
      "cg17185639": 589,
      "cg07456201": 590,
      "cg22333868": 591,
      "cg16356956": 592,
      "cg07873488": 593,
      "cg06253072": 594,
      "cg07506795": 595,
      "cg04551925": 596,
      "cg17709873": 597,
      "cg25055477": 598,
      "cg26803566": 599,
      "cg18573383": 600,
      "cg25887739": 601,
      "cg21696393": 602,
      "cg25425074": 603,
      "cg06911084": 604,
      "cg08493463": 605,
      "cg27168844": 606,
      "cg17170504": 607,
      "cg05279864": 608,
      "cg23836174": 609,
      "cg14444710": 610,
      "cg11851098": 611,
      "cg03568718": 612,
      "cg17352004": 613,
      "cg11126134": 614,
      "cg07039113": 615,
      "cg08020051": 616,
      "cg14694011": 617,
      "cg17838026": 618,
      "cg18841952": 619,
      "cg09953122": 620,
      "cg14642338": 621,
      "cg14894144": 622,
      "cg09828634": 623,
      "cg09996240": 624,
      "cg04598121": 625,
      "cg17663463": 626,
      "cg07599644": 627,
      "cg02381948": 628,
      "cg04912050": 629,
      "cg17824393": 630,
      "cg09412782": 631,
      "cg10173675": 632,
      "cg13517968": 633,
      "cg04304130": 634,
      "cg03589001": 635,
      "cg07850221": 636,
      "cg24924631": 637,
      "cg12331980": 638,
      "cg12067261": 639,
      "cg01076838": 640,
      "cg11631275": 641,
      "cg12277666": 642,
      "cg08649013": 643,
      "cg18042806": 644,
      "cg27592112": 645,
      "cg24650229": 646,
      "cg05522383": 647,
      "cg08290628": 648,
      "cg12902039": 649,
      "cg25697314": 650,
      "cg03379131": 651,
      "cg21432513": 652,
      "cg02187357": 653,
      "cg11054936": 654,
      "cg10719920": 655,
      "cg09799156": 656,
      "cg27389185": 657,
      "cg24030449": 658,
      "cg13270853": 659,
      "cg13447818": 660,
      "cg02883230": 661,
      "cg19046959": 662,
      "cg19974223": 663,
      "cg20979799": 664,
      "cg09588653": 665,
      "cg17296078": 666,
      "cg07086380": 667,
      "cg18130069": 668,
      "cg24883732": 669,
      "cg02332492": 670,
      "cg10490064": 671,
      "cg21307628": 672,
      "cg16628918": 673,
      "cg08632701": 674,
      "cg15642035": 675,
      "cg15298545": 676,
      "cg07594933": 677,
      "cg01871963": 678,
      "cg01193293": 679,
      "cg03270204": 680,
      "cg11314684": 681,
      "cg17667972": 682,
      "cg26976437": 683,
      "cg01473816": 684,
      "cg09099177": 685,
      "cg22909609": 686,
      "cg00013618": 687,
      "cg25830052": 688,
      "cg19579782": 689,
      "cg17386185": 690,
      "cg12946225": 691,
      "cg14091657": 692,
      "cg24122922": 693,
      "cg04574507": 694,
      "cg21542793": 695,
      "cg26106720": 696,
      "cg00047050": 697,
      "cg03998173": 698,
      "cg22654935": 699,
      "cg04799664": 700,
      "cg19304352": 701,
      "cg06501084": 702,
      "cg18982568": 703,
      "cg16411152": 704,
      "cg13446622": 705,
      "cg26488636": 706,
      "cg26159905": 707,
      "cg08343834": 708,
      "cg03552103": 709,
      "cg20392764": 710,
      "cg05436231": 711,
      "cg07432969": 712,
      "cg11300809": 713,
      "cg07903918": 714,
      "cg14959707": 715,
      "cg21039679": 716,
      "cg13847113": 717,
      "cg08379517": 718,
      "cg17539235": 719,
      "cg08253405": 720,
      "cg05023116": 721,
      "cg22417398": 722,
      "cg06132342": 723,
      "cg18678121": 724,
      "cg10246520": 725,
      "cg09390792": 726,
      "cg18267374": 727,
      "cg01092036": 728,
      "cg22101147": 729,
      "cg04660234": 730,
      "cg07621456": 731,
      "cg21165219": 732,
      "cg13672791": 733,
      "cg18499731": 734,
      "cg19692710": 735,
      "cg25250358": 736,
      "cg04063348": 737,
      "cg14059963": 738,
      "cg18743730": 739,
      "cg14839898": 740,
      "cg26645834": 741,
      "cg02218214": 742,
      "cg24012925": 743,
      "cg25418831": 744,
      "cg12914014": 745,
      "cg10421192": 746,
      "cg03914397": 747,
      "cg04845144": 748,
      "cg18787975": 749,
      "cg13017345": 750,
      "cg03426225": 751,
      "cg05881135": 752,
      "cg15639045": 753,
      "cg05859264": 754,
      "cg07296772": 755,
      "cg10618882": 756,
      "cg09492887": 757,
      "cg22959932": 758,
      "cg27626299": 759,
      "cg05184394": 760,
      "cg05482722": 761,
      "cg02131995": 762,
      "cg04961553": 763,
      "cg05010967": 764,
      "cg13847070": 765,
      "cg19025034": 766,
      "cg26530497": 767,
      "cg21003606": 768,
      "cg01837574": 769,
      "cg17177660": 770,
      "cg03271907": 771,
      "cg12894629": 772,
      "cg19410364": 773,
      "cg04060275": 774,
      "cg16907488": 775,
      "cg09059635": 776,
      "cg26229648": 777,
      "cg19537511": 778,
      "cg00673191": 779,
      "cg07034561": 780,
      "cg24715245": 781,
      "cg10864941": 782,
      "cg18655915": 783,
      "cg05779068": 784,
      "cg02377083": 785,
      "cg00199549": 786,
      "cg17200465": 787,
      "cg15227610": 788,
      "cg25833031": 789,
      "cg03929796": 790,
      "cg19560758": 791,
      "cg17001430": 792,
      "cg27305303": 793,
      "cg27195224": 794,
      "cg24272559": 795,
      "cg13159566": 796,
      "cg04995717": 797,
      "cg08538752": 798,
      "cg15674432": 799,
      "cg26608199": 800,
      "cg24517042": 801,
      "cg25229305": 802,
      "cg19358493": 803,
      "cg02091100": 804,
      "cg19728485": 805,
      "cg02936263": 806,
      "cg10117369": 807,
      "cg18809289": 808,
      "cg11136562": 809,
      "cg09088834": 810,
      "cg10398682": 811,
      "cg24178740": 812,
      "cg06942110": 813,
      "cg07290273": 814,
      "cg15903282": 815,
      "cg12091331": 816,
      "cg20645058": 817,
      "cg19125606": 818,
      "cg13739417": 819,
      "cg02401978": 820,
      "cg03770548": 821,
      "cg14799446": 822,
      "cg07889201": 823,
      "cg25718438": 824,
      "cg08005849": 825,
      "cg21044104": 826,
      "cg02873524": 827,
      "cg24127874": 828,
      "cg06444781": 829,
      "cg22333888": 830,
      "cg00514407": 831,
      "cg19120125": 832,
      "cg01437411": 833,
      "cg00727947": 834,
      "cg12448933": 835,
      "cg19058765": 836,
      "cg00101227": 837,
      "cg03760483": 838,
      "cg15888522": 839,
      "cg00083937": 840,
      "cg14880800": 841,
      "cg19298821": 842,
      "cg10730712": 843,
      "cg19250907": 844,
      "cg22759185": 845,
      "cg15329467": 846,
      "cg07044282": 847,
      "cg16771596": 848,
      "cg26134665": 849,
      "cg09261262": 850,
      "cg09126273": 851,
      "cg23771661": 852,
      "cg08145177": 853,
      "cg13351161": 854,
      "cg25115460": 855,
      "cg23894003": 856,
      "cg21907579": 857,
      "cg10003443": 858,
      "cg16652063": 859,
      "cg12497692": 860,
      "cg03780486": 861,
      "cg18023724": 862,
      "cg01103730": 863,
      "cg13857100": 864,
      "cg12082129": 865,
      "cg19843036": 866,
      "cg03258472": 867,
      "cg02580606": 868,
      "cg16249711": 869,
      "cg02630888": 870,
      "cg11834681": 871,
      "cg12040555": 872,
      "cg13883681": 873,
      "cg07259382": 874,
      "cg02686662": 875,
      "cg07965823": 876,
      "cg26045205": 877,
      "cg06810647": 878,
      "cg14343062": 879,
      "cg12791554": 880,
      "cg12884406": 881,
      "cg01747665": 882,
      "cg06357925": 883,
      "cg03554552": 884,
      "cg17255302": 885,
      "cg13877895": 886,
      "cg16522484": 887,
      "cg15361590": 888,
      "cg27440834": 889,
      "cg23473726": 890,
      "cg05700681": 891,
      "cg03950009": 892,
      "cg19697981": 893,
      "cg13085976": 894,
      "cg02647265": 895,
      "cg07142319": 896,
      "cg20551517": 897,
      "cg26372557": 898,
      "cg04691961": 899,
      "cg06956273": 900,
      "cg21695020": 901,
      "cg14704941": 902,
      "cg13870494": 903,
      "cg24870273": 904,
      "cg11765205": 905,
      "cg27305662": 906,
      "cg02914379": 907,
      "cg21614638": 908,
      "cg25087423": 909,
      "cg10865119": 910,
      "cg01489608": 911,
      "cg04312209": 912,
      "cg27488807": 913,
      "cg19680672": 914,
      "cg11435943": 915,
      "cg08433095": 916,
      "cg21489873": 917,
      "cg04514469": 918,
      "cg24650501": 919,
      "cg04595021": 920,
      "cg07011110": 921,
      "cg02831604": 922,
      "cg09851465": 923,
      "cg06317209": 924,
      "cg26212229": 925,
      "cg21509097": 926,
      "cg22050705": 927,
      "cg16098170": 928,
      "cg02674804": 929,
      "cg08860143": 930,
      "cg19955257": 931,
      "cg05439368": 932,
      "cg00564163": 933,
      "cg11984608": 934,
      "cg27465569": 935,
      "cg01644850": 936,
      "cg25427580": 937,
      "cg01643624": 938,
      "cg07173760": 939,
      "cg18247054": 940,
      "cg18397523": 941,
      "cg08743392": 942,
      "cg11546621": 943,
      "cg11554937": 944,
      "cg24901474": 945,
      "cg00174901": 946,
      "cg21754343": 947,
      "cg21505334": 948,
      "cg15903395": 949,
      "cg07643942": 950,
      "cg02641095": 951,
      "cg19546781": 952,
      "cg18151487": 953,
      "cg02946850": 954,
      "cg10133777": 955,
      "cg10775273": 956,
      "cg21238818": 957,
      "cg19132372": 958,
      "cg18587271": 959,
      "cg27258399": 960,
      "cg19841506": 961,
      "cg18515587": 962,
      "cg26750319": 963,
      "cg13991233": 964,
      "cg19096475": 965,
      "cg08418111": 966,
      "cg01495509": 967,
      "cg09300114": 968,
      "cg08015496": 969,
      "cg18241647": 970,
      "cg06240849": 971,
      "cg19721889": 972,
      "cg20986134": 973,
      "cg13968061": 974,
      "cg09508556": 975,
      "cg14601284": 976,
      "cg13870866": 977,
      "cg15071391": 978,
      "cg10338338": 979,
      "cg14758413": 980,
      "cg16547529": 981,
      "cg26155152": 982,
      "cg24315815": 983,
      "cg25388528": 984,
      "cg12818699": 985,
      "cg10234985": 986,
      "cg02409351": 987,
      "cg14161241": 988,
      "cg24661752": 989,
      "cg24010336": 990,
      "cg00620024": 991,
      "cg00005847": 992,
      "cg14226064": 993,
      "cg14724613": 994,
      "cg04531710": 995,
      "cg00412772": 996,
      "cg13074965": 997,
      "cg21142272": 998,
      "cg26181372": 999,
      "cg06426831": 1000,
      "cg08810582": 1001,
      "cg08790550": 1002,
      "cg14902389": 1003,
      "cg21505886": 1004,
      "cg03734874": 1005,
      "cg11504739": 1006,
      "cg17264618": 1007,
      "cg17983307": 1008,
      "cg14117297": 1009,
      "cg08849574": 1010,
      "cg14870461": 1011,
      "cg22458065": 1012,
      "cg26293512": 1013,
      "cg02401149": 1014,
      "cg18557145": 1015,
      "cg00995065": 1016,
      "cg13507326": 1017,
      "cg06906435": 1018,
      "cg13053396": 1019,
      "cg14603345": 1020,
      "cg03196745": 1021,
      "cg26770281": 1022,
      "cg26924825": 1023,
      "cg20713492": 1024,
      "cg14329157": 1025,
      "cg16628119": 1026,
      "cg17031727": 1027,
      "cg19718882": 1028,
      "cg23674882": 1029,
      "cg18328334": 1030,
      "cg26402828": 1031,
      "cg27508071": 1032,
      "cg00031162": 1033,
      "cg09099022": 1034,
      "cg00221494": 1035,
      "cg16924616": 1036,
      "cg27263448": 1037,
      "cg06643227": 1038,
      "cg04645174": 1039,
      "cg23499956": 1040,
      "cg05260966": 1041,
      "cg07360076": 1042,
      "cg21348691": 1043,
      "cg02676865": 1044,
      "cg14223444": 1045,
      "cg12571423": 1046,
      "cg14826456": 1047,
      "cg01677098": 1048,
      "cg23089840": 1049,
      "cg14100184": 1050,
      "cg07685034": 1051,
      "cg25802093": 1052,
      "cg22777952": 1053,
      "cg26738880": 1054,
      "cg20661303": 1055,
      "cg21256649": 1056,
      "cg20715219": 1057,
      "cg24073022": 1058,
      "cg14958018": 1059,
      "cg23950724": 1060,
      "cg07888040": 1061,
      "cg02198582": 1062,
      "cg15125472": 1063,
      "cg24384676": 1064,
      "cg01055695": 1065,
      "cg11299964": 1066,
      "cg17408686": 1067,
      "cg08696192": 1068,
      "cg00563932": 1069,
      "cg05293216": 1070,
      "cg18777554": 1071,
      "cg10235817": 1072,
      "cg03366382": 1073,
      "cg17215680": 1074,
      "cg18722841": 1075,
      "cg22223602": 1076,
      "cg13507429": 1077,
      "cg05483509": 1078,
      "cg14719352": 1079,
      "cg08370996": 1080,
      "cg24120841": 1081,
      "cg05155595": 1082,
      "cg14519000": 1083,
      "cg02228185": 1084,
      "cg10294836": 1085,
      "cg27217148": 1086,
      "cg01127428": 1087,
      "cg10134939": 1088,
      "cg25221254": 1089,
      "cg02261346": 1090,
      "cg22136365": 1091,
      "cg05158538": 1092,
      "cg24382521": 1093,
      "cg17256157": 1094,
      "cg13807496": 1095,
      "cg11612291": 1096,
      "cg04719766": 1097,
      "cg27026509": 1098,
      "cg14750190": 1099,
      "cg25629118": 1100,
      "cg07285276": 1101,
      "cg07331725": 1102,
      "cg12067287": 1103,
      "cg15308737": 1104,
      "cg18236734": 1105,
      "cg01274660": 1106,
      "cg13861644": 1107,
      "cg02305261": 1108,
      "cg17536532": 1109,
      "cg11845202": 1110,
      "cg27065979": 1111,
      "cg15563057": 1112,
      "cg16607065": 1113,
      "cg26499286": 1114,
      "cg10994126": 1115,
      "cg15746620": 1116,
      "cg19885761": 1117,
      "cg18180783": 1118,
      "cg03555203": 1119,
      "cg07380959": 1120,
      "cg16584573": 1121,
      "cg17527798": 1122,
      "cg26482939": 1123,
      "cg19815376": 1124,
      "cg26699283": 1125,
      "cg14173969": 1126,
      "cg03063797": 1127,
      "cg21167159": 1128,
      "cg03229887": 1129,
      "cg25910443": 1130,
      "cg10646402": 1131,
      "cg26385286": 1132,
      "cg22377389": 1133,
      "cg11871280": 1134,
      "cg20098887": 1135,
      "cg16593081": 1136,
      "cg11819637": 1137,
      "cg15475323": 1138,
      "cg03533058": 1139,
      "cg00873937": 1140,
      "cg23165541": 1141,
      "cg02382666": 1142,
      "cg01889448": 1143,
      "cg15590780": 1144,
      "cg24750391": 1145,
      "cg05949660": 1146,
      "cg11599505": 1147,
      "cg05570980": 1148,
      "cg06825166": 1149,
      "cg10025443": 1150,
      "cg04041960": 1151,
      "cg16449464": 1152,
      "cg15210427": 1153,
      "cg11797883": 1154,
      "cg04979933": 1155,
      "cg25822709": 1156,
      "cg14119236": 1157,
      "cg22415472": 1158,
      "cg05134796": 1159,
      "cg02762689": 1160,
      "cg15572745": 1161,
      "cg22063056": 1162,
      "cg15781838": 1163,
      "cg20051177": 1164,
      "cg26887625": 1165,
      "cg19254235": 1166,
      "cg07655627": 1167,
      "cg03775123": 1168,
      "cg17329518": 1169,
      "cg23904249": 1170,
      "cg12845808": 1171,
      "cg19224164": 1172,
      "cg10408410": 1173,
      "cg15379633": 1174,
      "cg25461934": 1175,
      "cg18741908": 1176,
      "cg21325760": 1177,
      "cg04349727": 1178,
      "cg23667432": 1179,
      "cg02553486": 1180,
      "cg20311501": 1181,
      "cg18271969": 1182,
      "cg19149785": 1183,
      "cg17040807": 1184,
      "cg07123069": 1185,
      "cg10822116": 1186,
      "cg08359956": 1187,
      "cg00027083": 1188,
      "cg02311163": 1189,
      "cg16077929": 1190,
      "cg15348799": 1191,
      "cg18596794": 1192,
      "cg02092466": 1193,
      "cg13578652": 1194,
      "cg11203041": 1195,
      "cg10883303": 1196,
      "cg25947945": 1197,
      "cg24338843": 1198,
      "cg26453670": 1199,
      "cg09660171": 1200,
      "cg24678320": 1201,
      "cg13888886": 1202,
      "cg18081258": 1203,
      "cg11721194": 1204,
      "cg26174752": 1205,
      "cg20506783": 1206,
      "cg23665568": 1207,
      "cg07850604": 1208,
      "cg11935147": 1209,
      "cg06933072": 1210,
      "cg04267184": 1211,
      "cg25107791": 1212,
      "cg12554476": 1213,
      "cg19917856": 1214,
      "cg23240895": 1215,
      "cg08307816": 1216,
      "cg12854483": 1217,
      "cg10994430": 1218,
      "cg08427977": 1219,
      "cg18822544": 1220,
      "cg13628514": 1221,
      "cg18675600": 1222,
      "cg13798289": 1223,
      "cg23873703": 1224,
      "cg05745851": 1225,
      "cg24825722": 1226,
      "cg12978308": 1227,
      "cg26555310": 1228,
      "cg19007731": 1229,
      "cg13722123": 1230,
      "cg01785568": 1231,
      "cg04545516": 1232,
      "cg14572485": 1233,
      "cg17981339": 1234,
      "cg02780849": 1235,
      "cg16883145": 1236,
      "cg00840403": 1237,
      "cg14738823": 1238,
      "cg14772955": 1239,
      "cg23696949": 1240,
      "cg15105660": 1241,
      "cg16175263": 1242,
      "cg10557828": 1243,
      "cg18180155": 1244,
      "cg13224710": 1245,
      "cg20047055": 1246,
      "cg17775713": 1247,
      "cg26333641": 1248,
      "cg20202438": 1249,
      "cg00185103": 1250,
      "cg00502442": 1251,
      "cg17431739": 1252,
      "cg03986640": 1253,
      "cg00032227": 1254,
      "cg25151806": 1255,
      "cg21265783": 1256,
      "cg06910100": 1257,
      "cg08285151": 1258,
      "cg11719283": 1259,
      "cg22552966": 1260,
      "cg08331313": 1261,
      "cg05671350": 1262,
      "cg11750883": 1263,
      "cg18997129": 1264,
      "cg00396894": 1265,
      "cg02005755": 1266,
      "cg15739437": 1267,
      "cg00833393": 1268,
      "cg23126915": 1269,
      "cg01805282": 1270,
      "cg02810134": 1271,
      "cg21640749": 1272,
      "cg22131691": 1273,
      "cg00876704": 1274,
      "cg16382382": 1275,
      "cg14001567": 1276,
      "cg19096540": 1277,
      "cg04589975": 1278,
      "cg10620457": 1279,
      "cg06154597": 1280,
      "cg06263495": 1281,
      "cg03961189": 1282,
      "cg15177359": 1283,
      "cg05958352": 1284,
      "cg21137417": 1285,
      "cg12491710": 1286,
      "cg20925811": 1287,
      "cg11716026": 1288,
      "cg24585690": 1289,
      "cg11289251": 1290,
      "cg24030627": 1291,
      "cg21165909": 1292,
      "cg22134325": 1293,
      "cg04347447": 1294,
      "cg14458615": 1295,
      "cg20851097": 1296,
      "cg00910067": 1297,
      "cg14001035": 1298,
      "cg20291222": 1299,
      "cg13958614": 1300,
      "cg11195002": 1301,
      "cg05675373": 1302,
      "cg00619207": 1303,
      "cg27041096": 1304,
      "cg21098323": 1305,
      "cg16536450": 1306,
      "cg04737046": 1307,
      "cg07675682": 1308,
      "cg06230736": 1309,
      "cg15815843": 1310,
      "cg22325572": 1311,
      "cg22143352": 1312,
      "cg19731122": 1313,
      "cg08820801": 1314,
      "cg16731240": 1315,
      "cg23739862": 1316,
      "cg05367858": 1317,
      "cg08575537": 1318,
      "cg05836145": 1319,
      "cg19438514": 1320,
      "cg04297093": 1321,
      "cg16063666": 1322,
      "cg12833011": 1323,
      "cg24625388": 1324,
      "cg04167867": 1325,
      "cg23111544": 1326,
      "cg11158374": 1327,
      "cg19278809": 1328,
      "cg22005565": 1329,
      "cg25462303": 1330,
      "cg16739580": 1331,
      "cg18176712": 1332,
      "cg18960218": 1333,
      "cg04731384": 1334,
      "cg06510830": 1335,
      "cg11484576": 1336,
      "cg09299388": 1337,
      "cg25573386": 1338,
      "cg22171829": 1339,
      "cg21852292": 1340,
      "cg16386080": 1341,
      "cg21750887": 1342,
      "cg25165880": 1343,
      "cg21547708": 1344,
      "cg05800321": 1345,
      "cg08367223": 1346,
      "cg21475402": 1347,
      "cg02089348": 1348,
      "cg02335804": 1349,
      "cg08929103": 1350,
      "cg09027725": 1351,
      "cg10365880": 1352,
      "cg08424423": 1353,
      "cg07271264": 1354,
      "cg13086467": 1355,
      "cg27412902": 1356,
      "cg11612345": 1357,
      "cg21115977": 1358,
      "cg19279346": 1359,
      "cg06275635": 1360,
      "cg15457899": 1361,
      "cg00546491": 1362,
      "cg19358442": 1363,
      "cg21111471": 1364,
      "cg10604168": 1365,
      "cg08097973": 1366,
      "cg12010995": 1367,
      "cg18454685": 1368,
      "cg10576828": 1369,
      "cg12939547": 1370,
      "cg20676475": 1371,
      "cg22764341": 1372,
      "cg11830061": 1373,
      "cg06356454": 1374,
      "cg13314167": 1375,
      "cg07314337": 1376,
      "cg16488098": 1377,
      "cg11122968": 1378,
      "cg10878307": 1379,
      "cg10062065": 1380,
      "cg05467458": 1381,
      "cg08786003": 1382,
      "cg19356324": 1383,
      "cg06468695": 1384,
      "cg22418360": 1385,
      "cg14736210": 1386,
      "cg05512756": 1387,
      "cg10175795": 1388,
      "cg23013864": 1389,
      "cg20225915": 1390,
      "cg11628487": 1391,
      "cg03504078": 1392,
      "cg24125648": 1393,
      "cg24977027": 1394,
      "cg19905754": 1395,
      "cg25344672": 1396,
      "cg26778754": 1397,
      "cg06606198": 1398,
      "cg18149207": 1399,
      "cg05828624": 1400,
      "cg17405586": 1401,
      "cg25689955": 1402,
      "cg01197831": 1403,
      "cg07248407": 1404,
      "cg04603031": 1405,
      "cg03029145": 1406,
      "cg13998293": 1407,
      "cg22236626": 1408,
      "cg13384396": 1409,
      "cg07665060": 1410,
      "cg16762386": 1411,
      "cg16744741": 1412,
      "cg09018862": 1413,
      "cg24831427": 1414,
      "cg23427666": 1415,
      "cg12555334": 1416,
      "cg01993576": 1417,
      "cg10376763": 1418,
      "cg26227005": 1419,
      "cg25827666": 1420,
      "cg08009711": 1421,
      "cg00729875": 1422,
      "cg24423088": 1423,
      "cg24919884": 1424,
      "cg23973000": 1425,
      "cg15606663": 1426,
      "cg01536400": 1427,
      "cg15160445": 1428,
      "cg10708675": 1429,
      "cg12499211": 1430,
      "cg21200703": 1431,
      "cg06665322": 1432,
      "cg26014197": 1433,
      "cg23727043": 1434,
      "cg18117847": 1435,
      "cg09558850": 1436,
      "cg04228628": 1437,
      "cg25400358": 1438,
      "cg07654843": 1439,
      "cg09034896": 1440,
      "cg24821554": 1441,
      "cg14329976": 1442,
      "cg05348272": 1443,
      "cg04898797": 1444,
      "cg02388150": 1445,
      "cg21130124": 1446,
      "cg26509022": 1447,
      "cg24274272": 1448,
      "cg02489552": 1449,
      "cg20775840": 1450,
      "cg11466837": 1451,
      "cg22463915": 1452,
      "cg13334277": 1453,
      "cg18213440": 1454,
      "cg14319409": 1455,
      "cg07715201": 1456,
      "cg24607398": 1457,
      "cg22764925": 1458,
      "cg04345475": 1459,
      "cg03102516": 1460,
      "cg20789620": 1461,
      "cg08351331": 1462,
      "cg03476370": 1463,
      "cg26910651": 1464,
      "cg09422355": 1465,
      "cg19764436": 1466,
      "cg03679305": 1467,
      "cg01281904": 1468,
      "cg12883767": 1469,
      "cg00515905": 1470,
      "cg15044041": 1471,
      "cg17240454": 1472,
      "cg06541857": 1473,
      "cg16150435": 1474,
      "cg05799317": 1475,
      "cg14269477": 1476,
      "cg18888403": 1477,
      "cg21870662": 1478,
      "cg14047008": 1479,
      "cg26771272": 1480,
      "cg18438300": 1481,
      "cg09065135": 1482,
      "cg19337279": 1483,
      "cg03866607": 1484,
      "cg06323290": 1485,
      "cg09245073": 1486,
      "cg26352374": 1487,
      "cg24012708": 1488,
      "cg05840031": 1489,
      "cg05908775": 1490,
      "cg14467840": 1491,
      "cg14120784": 1492,
      "cg25134071": 1493,
      "cg19255783": 1494,
      "cg08030082": 1495,
      "cg07602200": 1496,
      "cg24818418": 1497,
      "cg14824983": 1498,
      "cg03663715": 1499,
      "cg13718960": 1500,
      "cg14221171": 1501,
      "cg22545356": 1502,
      "cg13853198": 1503,
      "cg25915982": 1504,
      "cg25651505": 1505,
      "cg08700306": 1506,
      "cg11377136": 1507,
      "cg06277277": 1508,
      "cg01507173": 1509,
      "cg11804789": 1510,
      "cg03815350": 1511,
      "cg06049972": 1512,
      "cg21972382": 1513,
      "cg15758700": 1514,
      "cg01637734": 1515,
      "cg23651356": 1516,
      "cg00463848": 1517,
      "cg08432727": 1518,
      "cg08245789": 1519,
      "cg10368981": 1520,
      "cg15238200": 1521,
      "cg11856918": 1522,
      "cg07125991": 1523,
      "cg17687282": 1524,
      "cg17982504": 1525,
      "cg26317111": 1526,
      "cg09121849": 1527,
      "cg07007400": 1528,
      "cg13494498": 1529,
      "cg10177528": 1530,
      "cg24459209": 1531,
      "cg04968426": 1532,
      "cg19703610": 1533,
      "cg05726109": 1534,
      "cg16842485": 1535,
      "cg03349251": 1536,
      "cg10377274": 1537,
      "cg22274662": 1538,
      "cg23447996": 1539,
      "cg03455874": 1540,
      "cg23428445": 1541,
      "cg01053621": 1542,
      "cg27637521": 1543,
      "cg03087937": 1544,
      "cg04350646": 1545,
      "cg01657207": 1546,
      "cg18946226": 1547,
      "cg15207953": 1548,
      "cg04256470": 1549,
      "cg05275605": 1550,
      "cg04481779": 1551,
      "cg22740835": 1552,
      "cg06233985": 1553,
      "cg01428678": 1554,
      "cg14014225": 1555,
      "cg25313204": 1556,
      "cg19368582": 1557,
      "cg24014020": 1558,
      "cg17942096": 1559,
      "cg05498681": 1560,
      "cg22757447": 1561,
      "cg24262469": 1562,
      "cg01605984": 1563,
      "cg09737668": 1564,
      "cg07073964": 1565,
      "cg25094569": 1566,
      "cg19797376": 1567,
      "cg14494812": 1568,
      "cg21045388": 1569,
      "cg12281657": 1570,
      "cg05244766": 1571,
      "cg20158826": 1572,
      "cg22485810": 1573,
      "cg19724470": 1574,
      "cg08108641": 1575,
      "cg20786074": 1576,
      "cg05055150": 1577,
      "cg24217877": 1578,
      "cg17471928": 1579,
      "cg07504718": 1580,
      "cg14826683": 1581,
      "cg21311175": 1582,
      "cg22407458": 1583,
      "cg06995715": 1584,
      "cg19826026": 1585,
      "cg00415993": 1586,
      "cg25507001": 1587,
      "cg08590939": 1588,
      "cg16708012": 1589,
      "cg24387380": 1590,
      "cg03473518": 1591,
      "cg00512031": 1592,
      "cg13155059": 1593,
      "cg12894984": 1594,
      "cg07737781": 1595,
      "cg19798224": 1596,
      "cg20074593": 1597,
      "cg07295678": 1598,
      "cg22905968": 1599,
      "cg14407437": 1600,
      "cg20798152": 1601,
      "cg22461018": 1602,
      "cg22549408": 1603,
      "cg22012981": 1604,
      "cg27331144": 1605,
      "cg02763671": 1606,
      "cg11494699": 1607,
      "cg16112945": 1608,
      "cg19831077": 1609,
      "cg05380982": 1610,
      "cg14498423": 1611,
      "cg18876189": 1612,
      "cg15096123": 1613,
      "cg01546563": 1614,
      "cg06453691": 1615,
      "cg13520327": 1616,
      "cg26081162": 1617,
      "cg14494596": 1618,
      "cg09809242": 1619,
      "cg13952892": 1620,
      "cg14915263": 1621,
      "cg17950095": 1622,
      "cg02497428": 1623,
      "cg25112191": 1624,
      "cg05432118": 1625,
      "cg27501458": 1626,
      "cg13897627": 1627,
      "cg26361928": 1628,
      "cg20289911": 1629,
      "cg27196745": 1630,
      "cg24712395": 1631,
      "cg20267005": 1632,
      "cg07664027": 1633,
      "cg26873164": 1634,
      "cg19693015": 1635,
      "cg01656216": 1636,
      "cg06200339": 1637,
      "cg16504798": 1638,
      "cg04717045": 1639,
      "cg01610488": 1640,
      "cg11993754": 1641,
      "cg23228178": 1642,
      "cg22870256": 1643,
      "cg15824056": 1644,
      "cg01390445": 1645,
      "cg06585893": 1646,
      "cg03019000": 1647,
      "cg00430287": 1648,
      "cg05193832": 1649,
      "cg19030554": 1650,
      "cg21929875": 1651,
      "cg07705908": 1652,
      "cg09825414": 1653,
      "cg02157083": 1654,
      "cg13038560": 1655,
      "cg00134787": 1656,
      "cg01745448": 1657,
      "cg09437522": 1658,
      "cg27626102": 1659,
      "cg03055440": 1660,
      "cg07693270": 1661,
      "cg17188169": 1662,
      "cg21342728": 1663,
      "cg10635061": 1664,
      "cg08244028": 1665,
      "cg06100324": 1666,
      "cg12266049": 1667,
      "cg27377450": 1668,
      "cg18702197": 1669,
      "cg07944811": 1670,
      "cg03251079": 1671,
      "cg11827101": 1672,
      "cg22152328": 1673,
      "cg16911220": 1674,
      "cg23300372": 1675,
      "cg07818646": 1676,
      "cg19461621": 1677,
      "cg05666713": 1678,
      "cg02364642": 1679,
      "cg09022993": 1680,
      "cg25637824": 1681,
      "cg16069910": 1682,
      "cg14802951": 1683,
      "cg07730301": 1684,
      "cg14519036": 1685,
      "cg03264414": 1686,
      "cg19497444": 1687,
      "cg01335367": 1688,
      "cg11390468": 1689,
      "cg20787196": 1690,
      "cg12240237": 1691,
      "cg01176271": 1692,
      "cg16428251": 1693,
      "cg05421688": 1694,
      "cg25511807": 1695,
      "cg19037167": 1696,
      "cg02554564": 1697,
      "cg05636175": 1698,
      "cg21132577": 1699,
      "cg16177830": 1700,
      "cg02055963": 1701,
      "cg18219418": 1702,
      "cg13002506": 1703,
      "cg25219333": 1704,
      "cg04457051": 1705,
      "cg15661409": 1706,
      "cg10409560": 1707,
      "cg02064402": 1708,
      "cg17838765": 1709,
      "cg21624282": 1710,
      "cg21703138": 1711,
      "cg10159529": 1712,
      "cg23660999": 1713,
      "cg14314889": 1714,
      "cg12078929": 1715,
      "cg21948783": 1716,
      "cg23123694": 1717,
      "cg05982504": 1718,
      "cg23887102": 1719,
      "cg19304410": 1720,
      "cg05140736": 1721,
      "cg05093686": 1722,
      "cg02732509": 1723,
      "cg11879188": 1724,
      "cg17771150": 1725,
      "cg06022562": 1726,
      "cg20059312": 1727,
      "cg10099900": 1728,
      "cg15616400": 1729,
      "cg04333463": 1730,
      "cg10787197": 1731,
      "cg23968383": 1732,
      "cg16869108": 1733,
      "cg04281204": 1734,
      "cg07327468": 1735,
      "cg14440664": 1736,
      "cg16462075": 1737,
      "cg04802221": 1738,
      "cg17977409": 1739,
      "cg02049180": 1740,
      "cg23234999": 1741,
      "cg13221796": 1742,
      "cg14043602": 1743,
      "cg18530324": 1744,
      "cg26376809": 1745,
      "cg23471482": 1746,
      "cg24147596": 1747,
      "cg20103758": 1748,
      "cg13125510": 1749,
      "cg20879768": 1750,
      "cg14925024": 1751,
      "cg14448116": 1752,
      "cg02939139": 1753,
      "cg27559343": 1754,
      "cg07207789": 1755,
      "cg21466821": 1756,
      "cg27627570": 1757,
      "cg10124201": 1758,
      "cg02062650": 1759,
      "cg04114315": 1760,
      "cg20089715": 1761,
      "cg18705067": 1762,
      "cg18877514": 1763,
      "cg06191076": 1764,
      "cg15696627": 1765,
      "cg21721155": 1766,
      "cg16582174": 1767,
      "cg04273431": 1768,
      "cg11212312": 1769,
      "cg10035272": 1770,
      "cg25985778": 1771,
      "cg25665528": 1772,
      "cg06324048": 1773,
      "cg13797031": 1774,
      "cg11993300": 1775,
      "cg06661994": 1776,
      "cg08022502": 1777,
      "cg18043195": 1778,
      "cg21820890": 1779,
      "cg12029639": 1780,
      "cg17238009": 1781,
      "cg22988566": 1782,
      "cg16051685": 1783,
      "cg08952029": 1784,
      "cg06594008": 1785,
      "cg02046532": 1786,
      "cg06378617": 1787,
      "cg23571857": 1788,
      "cg13620770": 1789,
      "cg11113534": 1790,
      "cg11843304": 1791,
      "cg02040734": 1792,
      "cg26465666": 1793,
      "cg14547335": 1794,
      "cg26267561": 1795,
      "cg00636639": 1796,
      "cg11757293": 1797,
      "cg15357945": 1798,
      "cg04059863": 1799,
      "cg25101936": 1800,
      "cg24641352": 1801,
      "cg00744433": 1802,
      "cg12638745": 1803,
      "cg12613383": 1804,
      "cg27321931": 1805,
      "cg25890048": 1806,
      "cg21072025": 1807,
      "cg23854009": 1808,
      "cg25736482": 1809,
      "cg12348970": 1810,
      "cg12008118": 1811,
      "cg23748737": 1812,
      "cg13752005": 1813,
      "cg06197492": 1814,
      "cg21979032": 1815,
      "cg02942159": 1816,
      "cg13255629": 1817,
      "cg01656750": 1818,
      "cg15078479": 1819,
      "cg25162301": 1820,
      "cg19432894": 1821,
      "cg12753858": 1822,
      "cg22418909": 1823,
      "cg08811349": 1824,
      "cg05684195": 1825,
      "cg06621358": 1826,
      "cg18860847": 1827,
      "cg16332577": 1828,
      "cg19395441": 1829,
      "cg23476955": 1830,
      "cg00027674": 1831,
      "cg11354906": 1832,
      "cg19848683": 1833,
      "cg07376232": 1834,
      "cg22188058": 1835,
      "cg06255227": 1836,
      "cg01040850": 1837,
      "cg11158729": 1838,
      "cg08301503": 1839,
      "cg02964389": 1840,
      "cg05656364": 1841,
      "cg27016494": 1842,
      "cg23239039": 1843,
      "cg00468146": 1844,
      "cg03003256": 1845,
      "cg12605747": 1846,
      "cg04317543": 1847,
      "cg15491567": 1848,
      "cg21504624": 1849,
      "cg15648315": 1850,
      "cg23095584": 1851,
      "cg00731459": 1852,
      "cg07347725": 1853,
      "cg03062665": 1854,
      "cg06221259": 1855,
      "cg10683939": 1856,
      "cg11529250": 1857,
      "cg05062178": 1858,
      "cg20775254": 1859,
      "cg20092728": 1860,
      "cg25599211": 1861,
      "cg03631076": 1862,
      "cg12559031": 1863,
      "cg13613748": 1864,
      "cg23773532": 1865,
      "cg14118546": 1866,
      "cg26550234": 1867,
      "cg01402255": 1868,
      "cg04368877": 1869,
      "cg07230446": 1870,
      "cg07221454": 1871,
      "cg10734665": 1872,
      "cg13325261": 1873,
      "cg26200580": 1874,
      "cg14611112": 1875,
      "cg13577076": 1876,
      "cg12391048": 1877,
      "cg15798530": 1878,
      "cg23580945": 1879,
      "cg10305797": 1880,
      "cg10129493": 1881,
      "cg11688219": 1882,
      "cg12056618": 1883,
      "cg11679069": 1884,
      "cg07871503": 1885,
      "cg01753375": 1886,
      "cg12694870": 1887,
      "cg10213821": 1888,
      "cg05322019": 1889,
      "cg04784672": 1890,
      "cg17982102": 1891,
      "cg26069745": 1892,
      "cg23037403": 1893,
      "cg05228408": 1894,
      "cg27235662": 1895,
      "cg14175438": 1896,
      "cg13180098": 1897,
      "cg04106785": 1898,
      "cg26542888": 1899,
      "cg04583874": 1900,
      "cg13549845": 1901,
      "cg10645113": 1902,
      "cg18059223": 1903,
      "cg16004226": 1904,
      "cg07531356": 1905,
      "cg22679120": 1906,
      "cg19744122": 1907,
      "cg07625840": 1908,
      "cg24703717": 1909,
      "cg00347904": 1910,
      "cg08643928": 1911,
      "cg15816080": 1912,
      "cg01410472": 1913,
      "cg03076324": 1914,
      "cg04518808": 1915,
      "cg26609631": 1916,
      "cg04786857": 1917,
      "cg03875195": 1918,
      "cg19194454": 1919,
      "cg01794265": 1920,
      "cg07349094": 1921,
      "cg25589890": 1922,
      "cg04457481": 1923,
      "cg11722639": 1924,
      "cg06076054": 1925,
      "cg14561282": 1926,
      "cg17465219": 1927,
      "cg12955127": 1928,
      "cg20907471": 1929,
      "cg12062464": 1930,
      "cg05698090": 1931,
      "cg02590345": 1932,
      "cg04096767": 1933,
      "cg12999109": 1934,
      "cg01625242": 1935,
      "cg25249068": 1936,
      "cg25420952": 1937,
      "cg24797830": 1938,
      "cg21743830": 1939,
      "cg09704415": 1940,
      "cg23196831": 1941,
      "cg11074362": 1942,
      "cg24744425": 1943,
      "cg17769238": 1944,
      "cg06803253": 1945,
      "cg11057497": 1946,
      "cg21016177": 1947,
      "cg06285340": 1948,
      "cg20998885": 1949,
      "cg22828804": 1950,
      "cg10126874": 1951,
      "cg26149550": 1952,
      "cg23609672": 1953,
      "cg15640375": 1954,
      "cg11812202": 1955,
      "cg21120063": 1956,
      "cg22035229": 1957,
      "cg01620785": 1958,
      "cg18424538": 1959,
      "cg15422147": 1960,
      "cg26005082": 1961,
      "cg00057593": 1962,
      "cg14402472": 1963,
      "cg03032025": 1964,
      "cg23762517": 1965,
      "cg10929387": 1966,
      "cg04765929": 1967,
      "cg00186701": 1968,
      "cg22563697": 1969,
      "cg16175725": 1970,
      "cg05922972": 1971,
      "cg24164563": 1972,
      "cg02154074": 1973,
      "cg22892110": 1974,
      "cg02100629": 1975,
      "cg05154390": 1976,
      "cg27285599": 1977,
      "cg25766774": 1978,
      "cg11458974": 1979,
      "cg08451957": 1980,
      "cg05670348": 1981,
      "cg01342792": 1982,
      "cg26590537": 1983,
      "cg00546897": 1984,
      "cg10300684": 1985,
      "cg24365867": 1986,
      "cg14002682": 1987,
      "cg01550148": 1988,
      "cg07847428": 1989,
      "cg09440289": 1990,
      "cg21838334": 1991,
      "cg08583049": 1992,
      "cg02309273": 1993,
      "cg07331806": 1994,
      "cg00953256": 1995,
      "cg10936763": 1996,
      "cg16037142": 1997,
      "cg03388193": 1998,
      "cg18939260": 1999,
      "cg12374721": 2000,
      "cg12493906": 2001,
      "cg04369341": 2002,
      "cg00712898": 2003,
      "cg06274159": 2004,
      "cg20025656": 2005,
      "cg05104081": 2006,
      "cg11540997": 2007,
      "cg11644586": 2008,
      "cg22941086": 2009,
      "cg24343515": 2010,
      "cg21075829": 2011,
      "cg08670691": 2012,
      "cg04301614": 2013,
      "cg06206628": 2014,
      "cg25459778": 2015,
      "cg00933411": 2016,
      "cg26105232": 2017,
      "cg14832904": 2018,
      "cg04428853": 2019,
      "cg15272684": 2020,
      "cg05135156": 2021,
      "cg06154570": 2022,
      "cg05046097": 2023,
      "cg05073035": 2024,
      "cg16878652": 2025,
      "cg24042452": 2026,
      "cg05050341": 2027,
      "cg04450876": 2028,
      "cg04947157": 2029,
      "cg02317907": 2030,
      "cg07408456": 2031,
      "cg25574024": 2032,
      "cg04759439": 2033,
      "cg25182523": 2034,
      "cg08900043": 2035,
      "cg09089053": 2036,
      "cg25547939": 2037,
      "cg12274479": 2038,
      "cg10599444": 2039,
      "cg10919329": 2040,
      "cg19686152": 2041,
      "cg26489108": 2042,
      "cg27347104": 2043,
      "cg17376813": 2044,
      "cg16215361": 2045,
      "cg22264436": 2046,
      "cg01413516": 2047,
      "cg01669948": 2048,
      "cg25125453": 2049,
      "cg26815229": 2050,
      "cg02675896": 2051,
      "cg06351503": 2052,
      "cg21081971": 2053,
      "cg05788638": 2054,
      "cg09500672": 2055,
      "cg26521448": 2056,
      "cg22881914": 2057,
      "cg10585962": 2058,
      "cg17243643": 2059,
      "cg15603885": 2060,
      "cg09255666": 2061,
      "cg02021817": 2062,
      "cg00840516": 2063,
      "cg10539507": 2064,
      "cg14761227": 2065,
      "cg13791658": 2066,
      "cg10114327": 2067,
      "cg21407839": 2068,
      "cg01493303": 2069,
      "cg13310671": 2070,
      "cg21209356": 2071,
      "cg22294577": 2072,
      "cg02280309": 2073,
      "cg25465406": 2074,
      "cg16979445": 2075,
      "cg23602684": 2076,
      "cg23131777": 2077,
      "cg03777459": 2078,
      "cg14950072": 2079,
      "cg24130043": 2080,
      "cg06952310": 2081,
      "cg23126947": 2082,
      "cg25854162": 2083,
      "cg11500727": 2084,
      "cg08647727": 2085,
      "cg12430845": 2086,
      "cg26916607": 2087,
      "cg20161179": 2088,
      "cg21581873": 2089,
      "cg03623878": 2090,
      "cg15538427": 2091,
      "cg11965370": 2092,
      "cg05546038": 2093,
      "cg07314549": 2094,
      "cg06020352": 2095,
      "cg02815516": 2096,
      "cg05208153": 2097,
      "cg02620013": 2098,
      "cg19949550": 2099,
      "cg01483882": 2100,
      "cg00091693": 2101,
      "cg02879662": 2102,
      "cg24107665": 2103,
      "cg22123464": 2104,
      "cg06869899": 2105,
      "cg17567317": 2106,
      "cg17303299": 2107,
      "cg08569678": 2108,
      "cg17171916": 2109,
      "cg03022541": 2110,
      "cg03943081": 2111,
      "cg14889768": 2112,
      "cg05953243": 2113,
      "cg01813965": 2114,
      "cg25826526": 2115,
      "cg24891133": 2116,
      "cg08766149": 2117,
      "cg13833831": 2118,
      "cg03380645": 2119,
      "cg26955850": 2120,
      "cg14859749": 2121,
      "cg02927346": 2122,
      "cg08418978": 2123,
      "cg08101172": 2124,
      "cg11767711": 2125,
      "cg17754680": 2126,
      "cg13282594": 2127,
      "cg19664945": 2128,
      "cg23054437": 2129,
      "cg19257550": 2130,
      "cg27090216": 2131,
      "cg04464559": 2132,
      "cg08441170": 2133,
      "cg12478185": 2134,
      "cg07671949": 2135,
      "cg05294243": 2136,
      "cg14659404": 2137,
      "cg16148270": 2138,
      "cg11667754": 2139,
      "cg26145103": 2140,
      "cg15923513": 2141,
      "cg25287375": 2142,
      "cg08815403": 2143,
      "cg17469479": 2144,
      "cg07482936": 2145,
      "cg01532771": 2146,
      "cg13671831": 2147,
      "cg00597076": 2148,
      "cg26099316": 2149,
      "cg02786378": 2150,
      "cg14228238": 2151,
      "cg09530763": 2152,
      "cg14170423": 2153,
      "cg23881725": 2154,
      "cg21092687": 2155,
      "cg08023751": 2156,
      "cg08555924": 2157,
      "cg03964111": 2158,
      "cg15091337": 2159,
      "cg25431974": 2160,
      "cg04749372": 2161,
      "cg06882926": 2162,
      "cg27349244": 2163,
      "cg26198807": 2164,
      "cg22799850": 2165,
      "cg08707819": 2166,
      "cg07008386": 2167,
      "cg24027342": 2168,
      "cg26209676": 2169,
      "cg01565918": 2170,
      "cg26466858": 2171,
      "cg15256539": 2172,
      "cg00548268": 2173,
      "cg23423382": 2174,
      "cg10432859": 2175,
      "cg11070419": 2176,
      "cg20751395": 2177,
      "cg04562739": 2178,
      "cg14566624": 2179,
      "cg05392265": 2180,
      "cg22858308": 2181,
      "cg15387123": 2182,
      "cg08584430": 2183,
      "cg16354207": 2184,
      "cg11399100": 2185,
      "cg08229694": 2186,
      "cg25177139": 2187,
      "cg04291079": 2188,
      "cg11051158": 2189,
      "cg13652336": 2190,
      "cg22979433": 2191,
      "cg14058345": 2192,
      "cg05335315": 2193,
      "cg11695684": 2194,
      "cg02799466": 2195,
      "cg05501682": 2196,
      "cg12871124": 2197,
      "cg19979896": 2198,
      "cg26164184": 2199,
      "cg15047833": 2200,
      "cg08573687": 2201,
      "cg07914959": 2202,
      "cg02282237": 2203,
      "cg27519373": 2204,
      "cg14448104": 2205,
      "cg12339029": 2206,
      "cg17291001": 2207,
      "cg05471297": 2208,
      "cg13164309": 2209,
      "cg26380756": 2210,
      "cg22189286": 2211,
      "cg26970800": 2212,
      "cg21624359": 2213,
      "cg00936626": 2214,
      "cg01725199": 2215,
      "cg25864727": 2216,
      "cg14129103": 2217,
      "cg03693099": 2218,
      "cg21589115": 2219,
      "cg03665605": 2220,
      "cg19987219": 2221,
      "cg19033555": 2222,
      "cg12085225": 2223,
      "cg06263943": 2224,
      "cg03005261": 2225,
      "cg12467864": 2226,
      "cg02273078": 2227,
      "cg07915343": 2228,
      "cg24176563": 2229,
      "cg04319097": 2230,
      "cg06434428": 2231,
      "cg27449489": 2232,
      "cg20856834": 2233,
      "cg10046620": 2234,
      "cg07103819": 2235,
      "cg09283635": 2236,
      "cg05157725": 2237,
      "cg14861570": 2238,
      "cg11528101": 2239,
      "cg20082641": 2240,
      "cg26535072": 2241,
      "cg17657618": 2242,
      "cg19988449": 2243,
      "cg18107072": 2244,
      "cg12289045": 2245,
      "cg08393541": 2246,
      "cg07031996": 2247,
      "cg15742700": 2248,
      "cg19064258": 2249,
      "cg22229034": 2250,
      "cg27665659": 2251,
      "cg11219178": 2252,
      "cg26055770": 2253,
      "cg22627427": 2254,
      "cg05008406": 2255,
      "cg24495017": 2256,
      "cg03503905": 2257,
      "cg02992647": 2258,
      "cg04496615": 2259,
      "cg22511262": 2260,
      "cg04619859": 2261,
      "cg07150830": 2262,
      "cg12259537": 2263,
      "cg12867448": 2264,
      "cg27426707": 2265,
      "cg07540118": 2266,
      "cg18003135": 2267,
      "cg21682826": 2268,
      "cg20018806": 2269,
      "cg10748867": 2270,
      "cg18931750": 2271,
      "cg09721427": 2272,
      "cg08956138": 2273,
      "cg21926138": 2274,
      "cg01352108": 2275,
      "cg06580318": 2276,
      "cg10331779": 2277,
      "cg18432384": 2278,
      "cg22863122": 2279,
      "cg03014957": 2280,
      "cg05615487": 2281,
      "cg19968631": 2282,
      "cg13685294": 2283,
      "cg18023080": 2284,
      "cg17699374": 2285,
      "cg20831708": 2286,
      "cg15364618": 2287,
      "cg21768899": 2288,
      "cg15853125": 2289,
      "cg21902346": 2290,
      "cg06179485": 2291,
      "cg11724759": 2292,
      "cg27177839": 2293,
      "cg25608949": 2294,
      "cg02631906": 2295,
      "cg25020204": 2296,
      "cg07936037": 2297,
      "cg11525285": 2298,
      "cg25214346": 2299,
      "cg17606785": 2300,
      "cg25148589": 2301,
      "cg13634864": 2302,
      "cg07011445": 2303,
      "cg24580782": 2304,
      "cg13703437": 2305,
      "cg12874092": 2306,
      "cg21296676": 2307,
      "cg13376158": 2308,
      "cg13118849": 2309,
      "cg27060381": 2310,
      "cg05869585": 2311,
      "cg20828084": 2312,
      "cg18242682": 2313,
      "cg02322621": 2314,
      "cg16743781": 2315,
      "cg16605590": 2316,
      "cg09095562": 2317,
      "cg21023770": 2318,
      "cg13539030": 2319,
      "cg13245912": 2320,
      "cg11177404": 2321,
      "cg02867079": 2322,
      "cg24489015": 2323,
      "cg09339527": 2324,
      "cg15056412": 2325,
      "cg22268164": 2326,
      "cg05745457": 2327,
      "cg06529761": 2328,
      "cg18329036": 2329,
      "cg10056627": 2330,
      "cg21363706": 2331,
      "cg05056120": 2332,
      "cg14452875": 2333,
      "cg04338788": 2334,
      "cg03782727": 2335,
      "cg13592003": 2336,
      "cg23248452": 2337,
      "cg14913610": 2338,
      "cg15316289": 2339,
      "cg20088535": 2340,
      "cg07940485": 2341,
      "cg18718102": 2342,
      "cg18354594": 2343,
      "cg24762359": 2344,
      "cg27039606": 2345,
      "cg00769470": 2346,
      "cg27635271": 2347,
      "cg25856811": 2348,
      "cg02451362": 2349,
      "cg00116234": 2350,
      "cg00217795": 2351,
      "cg06806080": 2352,
      "cg06714705": 2353,
      "cg08772206": 2354,
      "cg23772500": 2355,
      "cg07927484": 2356,
      "cg15582891": 2357,
      "cg13059335": 2358,
      "cg10322876": 2359,
      "cg17258195": 2360,
      "cg01580568": 2361,
      "cg12622273": 2362,
      "cg10591174": 2363,
      "cg12748926": 2364,
      "cg25725843": 2365,
      "cg06143901": 2366,
      "cg17119688": 2367,
      "cg15383087": 2368,
      "cg18042079": 2369,
      "cg22335340": 2370,
      "cg22337624": 2371,
      "cg12314510": 2372,
      "cg24690731": 2373,
      "cg03557698": 2374,
      "cg18006085": 2375,
      "cg14809191": 2376,
      "cg23580000": 2377,
      "cg08620470": 2378,
      "cg01692572": 2379,
      "cg03617456": 2380,
      "cg13460409": 2381,
      "cg07476030": 2382,
      "cg01009664": 2383,
      "cg20695587": 2384,
      "cg06172871": 2385,
      "cg03771255": 2386,
      "cg12855851": 2387,
      "cg17939444": 2388,
      "cg24115040": 2389,
      "cg14196790": 2390,
      "cg19278165": 2391,
      "cg14472778": 2392,
      "cg18678763": 2393,
      "cg15392792": 2394,
      "cg07405796": 2395,
      "cg08256691": 2396,
      "cg11835355": 2397,
      "cg15973234": 2398,
      "cg27638597": 2399,
      "cg02715140": 2400,
      "cg21006686": 2401,
      "cg16523653": 2402,
      "cg12239750": 2403,
      "cg10861751": 2404,
      "cg22161476": 2405,
      "cg22477971": 2406,
      "cg16608652": 2407,
      "cg07545925": 2408,
      "cg17283268": 2409,
      "cg17272843": 2410,
      "cg19616230": 2411,
      "cg13152535": 2412,
      "cg13379763": 2413,
      "cg04016326": 2414,
      "cg08724636": 2415,
      "cg07123548": 2416,
      "cg20398399": 2417,
      "cg07639959": 2418,
      "cg01446983": 2419,
      "cg21330703": 2420,
      "cg20881888": 2421,
      "cg13614083": 2422,
      "cg01907837": 2423,
      "cg16404106": 2424,
      "cg22255355": 2425,
      "cg25084525": 2426,
      "cg27337148": 2427,
      "cg23429696": 2428,
      "cg26661623": 2429,
      "cg04376617": 2430,
      "cg00757952": 2431,
      "cg24794992": 2432,
      "cg18384097": 2433,
      "cg17978274": 2434,
      "cg12297221": 2435,
      "cg23311628": 2436,
      "cg12069042": 2437,
      "cg02047577": 2438,
      "cg02298612": 2439,
      "cg21109025": 2440,
      "cg18887228": 2441,
      "cg08179530": 2442,
      "cg03547924": 2443,
      "cg23894539": 2444,
      "cg23412777": 2445,
      "cg26866325": 2446,
      "cg01888566": 2447,
      "cg03842617": 2448,
      "cg23382741": 2449,
      "cg17942553": 2450,
      "cg23960723": 2451,
      "cg15988792": 2452,
      "cg24322623": 2453,
      "cg02417408": 2454,
      "cg10211877": 2455,
      "cg06003187": 2456,
      "cg23613317": 2457,
      "cg16087263": 2458,
      "cg17428423": 2459,
      "cg26626089": 2460,
      "cg12177677": 2461,
      "cg22724153": 2462,
      "cg10857807": 2463,
      "cg10936230": 2464,
      "cg10957200": 2465,
      "cg16604516": 2466,
      "cg16902509": 2467,
      "cg05556210": 2468,
      "cg13791131": 2469,
      "cg26792365": 2470,
      "cg17293641": 2471,
      "cg27583102": 2472,
      "cg17162271": 2473,
      "cg03848555": 2474,
      "cg14563260": 2475,
      "cg25543676": 2476,
      "cg03212129": 2477,
      "cg10256052": 2478,
      "cg19280968": 2479,
      "cg15700197": 2480,
      "cg22495124": 2481,
      "cg25117976": 2482,
      "cg27342801": 2483,
      "cg03883348": 2484,
      "cg03107405": 2485,
      "cg16570917": 2486,
      "cg17849194": 2487,
      "cg10552385": 2488,
      "cg06039624": 2489,
      "cg22636253": 2490,
      "cg09025324": 2491,
      "cg13652653": 2492,
      "cg22449114": 2493,
      "cg00116838": 2494,
      "cg19139277": 2495,
      "cg13921352": 2496,
      "cg17776353": 2497,
      "cg23191950": 2498,
      "cg02244695": 2499,
      "cg10171125": 2500,
      "cg06242000": 2501,
      "cg19635712": 2502,
      "cg09542111": 2503,
      "cg25291907": 2504,
      "cg24619694": 2505,
      "cg00725635": 2506,
      "cg24222324": 2507,
      "cg00954003": 2508,
      "cg24340657": 2509,
      "cg05029288": 2510,
      "cg26358059": 2511,
      "cg10488141": 2512,
      "cg15809230": 2513,
      "cg14405589": 2514,
      "cg13338132": 2515,
      "cg19823847": 2516,
      "cg06543761": 2517,
      "cg11323198": 2518,
      "cg14550007": 2519,
      "cg18074297": 2520,
      "cg26946769": 2521,
      "cg18555440": 2522,
      "cg21049762": 2523,
      "cg07374928": 2524,
      "cg13585240": 2525,
      "cg13301014": 2526,
      "cg11885098": 2527,
      "cg10872447": 2528,
      "cg15164103": 2529,
      "cg04237003": 2530,
      "cg27478651": 2531,
      "cg23621689": 2532,
      "cg09874776": 2533,
      "cg03242666": 2534,
      "cg14785449": 2535,
      "cg01656853": 2536,
      "cg23440155": 2537,
      "cg23033845": 2538,
      "cg13842648": 2539,
      "cg00319692": 2540,
      "cg18589624": 2541,
      "cg04510262": 2542,
      "cg08572611": 2543,
      "cg11706111": 2544,
      "cg06449653": 2545,
      "cg00819696": 2546,
      "cg16408970": 2547,
      "cg14658900": 2548,
      "cg10797910": 2549,
      "cg03750606": 2550,
      "cg02490034": 2551,
      "cg24734575": 2552,
      "cg06096336": 2553,
      "cg26065841": 2554,
      "cg22926560": 2555,
      "cg11603096": 2556,
      "cg18392482": 2557,
      "cg23350087": 2558,
      "cg12254515": 2559,
      "cg11784281": 2560,
      "cg14228840": 2561,
      "cg26777475": 2562,
      "cg09015232": 2563,
      "cg07681084": 2564,
      "cg22647018": 2565,
      "cg13405161": 2566,
      "cg16855929": 2567,
      "cg15219393": 2568,
      "cg25555137": 2569,
      "cg03934354": 2570,
      "cg09061733": 2571,
      "cg18085435": 2572,
      "cg22580372": 2573,
      "cg17049328": 2574,
      "cg19399532": 2575,
      "cg26647600": 2576,
      "cg14579051": 2577,
      "cg03662459": 2578,
      "cg22780475": 2579,
      "cg17452277": 2580,
      "cg11613875": 2581,
      "cg06038049": 2582,
      "cg19766460": 2583,
      "cg20955688": 2584,
      "cg20721467": 2585,
      "cg13591701": 2586,
      "cg17943999": 2587,
      "cg22913584": 2588,
      "cg17688525": 2589,
      "cg08942875": 2590,
      "cg22792432": 2591,
      "cg04536575": 2592,
      "cg24516901": 2593,
      "cg20993403": 2594,
      "cg18902203": 2595,
      "cg19428417": 2596,
      "cg13666340": 2597,
      "cg10157098": 2598,
      "cg13665593": 2599,
      "cg06630567": 2600,
      "cg06077733": 2601,
      "cg03475420": 2602,
      "cg24453664": 2603,
      "cg05556020": 2604,
      "cg26504021": 2605,
      "cg08395365": 2606,
      "cg20967220": 2607,
      "cg21151355": 2608,
      "cg21053015": 2609,
      "cg13983578": 2610,
      "cg03387497": 2611,
      "cg22940789": 2612,
      "cg04356968": 2613,
      "cg02992596": 2614,
      "cg27383956": 2615,
      "cg15215114": 2616,
      "cg15210999": 2617,
      "cg02283643": 2618,
      "cg01282432": 2619,
      "cg11246695": 2620,
      "cg21033494": 2621,
      "cg10329418": 2622,
      "cg08504583": 2623,
      "cg19267846": 2624,
      "cg15241708": 2625,
      "cg11869721": 2626,
      "cg07660236": 2627,
      "cg17324128": 2628,
      "cg02644301": 2629,
      "cg22975913": 2630,
      "cg24719601": 2631,
      "cg07359545": 2632,
      "cg01919488": 2633,
      "cg12869240": 2634,
      "cg08510456": 2635,
      "cg13500388": 2636,
      "cg04995095": 2637,
      "cg17327492": 2638,
      "cg01152019": 2639,
      "cg12924408": 2640,
      "cg09498379": 2641,
      "cg25524473": 2642,
      "cg19242268": 2643,
      "cg01962969": 2644,
      "cg17738194": 2645,
      "cg05366401": 2646,
      "cg26824091": 2647,
      "cg24867501": 2648,
      "cg26235710": 2649,
      "cg01161216": 2650,
      "cg00077877": 2651,
      "cg16918585": 2652,
      "cg07628086": 2653,
      "cg15299463": 2654,
      "cg09185773": 2655,
      "cg09499849": 2656,
      "cg09472953": 2657,
      "cg19224278": 2658,
      "cg23660191": 2659,
      "cg19219366": 2660,
      "cg19345165": 2661,
      "cg14399060": 2662,
      "cg03998348": 2663,
      "cg07829809": 2664,
      "cg00626466": 2665,
      "cg26845300": 2666,
      "cg18194038": 2667,
      "cg03977657": 2668,
      "cg23696712": 2669,
      "cg27519140": 2670,
      "cg01211097": 2671,
      "cg17328659": 2672,
      "cg20209009": 2673,
      "cg11808874": 2674,
      "cg20591405": 2675,
      "cg26808784": 2676,
      "cg00910168": 2677,
      "cg06938878": 2678,
      "cg03017946": 2679,
      "cg08825571": 2680,
      "cg20395892": 2681,
      "cg07490776": 2682,
      "cg08738040": 2683,
      "cg19759064": 2684,
      "cg13603551": 2685,
      "cg19784470": 2686,
      "cg22709192": 2687,
      "cg14662756": 2688,
      "cg16209630": 2689,
      "cg05922591": 2690,
      "cg15087147": 2691,
      "cg20176989": 2692,
      "cg19098826": 2693,
      "cg10805676": 2694,
      "cg26649005": 2695,
      "cg00117172": 2696,
      "cg05755779": 2697,
      "cg10660136": 2698,
      "cg26093687": 2699,
      "cg21060854": 2700,
      "cg00689010": 2701,
      "cg19521927": 2702,
      "cg03277112": 2703,
      "cg19615059": 2704,
      "cg25999486": 2705,
      "cg10057218": 2706,
      "cg14045072": 2707,
      "cg16961092": 2708,
      "cg04739485": 2709,
      "cg18182399": 2710,
      "cg02046017": 2711,
      "cg17676574": 2712,
      "cg10564498": 2713,
      "cg03942436": 2714,
      "cg01856985": 2715,
      "cg18397653": 2716,
      "cg21428681": 2717,
      "cg15540820": 2718,
      "cg22416721": 2719,
      "cg00131557": 2720,
      "cg05724065": 2721,
      "cg19125999": 2722,
      "cg00823148": 2723,
      "cg16685860": 2724,
      "cg16131766": 2725,
      "cg18390025": 2726,
      "cg21019522": 2727,
      "cg14387505": 2728,
      "cg17651821": 2729,
      "cg21238457": 2730,
      "cg21942576": 2731,
      "cg25084220": 2732,
      "cg17683775": 2733,
      "cg16802152": 2734,
      "cg16645539": 2735,
      "cg16584172": 2736,
      "cg20835282": 2737,
      "cg14026971": 2738,
      "cg25509184": 2739,
      "cg12766348": 2740,
      "cg21389884": 2741,
      "cg13520715": 2742,
      "cg15350036": 2743,
      "cg16257040": 2744,
      "cg11141013": 2745,
      "cg03445474": 2746,
      "cg21615663": 2747,
      "cg15837252": 2748,
      "cg00469635": 2749,
      "cg02153528": 2750,
      "cg19355685": 2751,
      "cg22692158": 2752,
      "cg23248865": 2753,
      "cg06187947": 2754,
      "cg22718139": 2755,
      "cg03366896": 2756,
      "cg05342835": 2757,
      "cg06913228": 2758,
      "cg13560548": 2759,
      "cg26614073": 2760,
      "cg13904493": 2761,
      "cg15489294": 2762,
      "cg11405695": 2763,
      "cg15639951": 2764,
      "cg01820374": 2765,
      "cg02168291": 2766,
      "cg09454892": 2767,
      "cg25948180": 2768,
      "cg03355298": 2769,
      "cg10503138": 2770,
      "cg04020816": 2771,
      "cg18885346": 2772,
      "cg14060836": 2773,
      "cg12986021": 2774,
      "cg07294541": 2775,
      "cg26842024": 2776,
      "cg23829949": 2777,
      "cg06222120": 2778,
      "cg22533573": 2779,
      "cg05000446": 2780,
      "cg17509612": 2781,
      "cg01924993": 2782,
      "cg13968390": 2783,
      "cg09354267": 2784,
      "cg26615712": 2785,
      "cg11846968": 2786,
      "cg22722822": 2787,
      "cg20122491": 2788,
      "cg23651728": 2789,
      "cg26812418": 2790,
      "cg00691625": 2791,
      "cg09082287": 2792,
      "cg16773899": 2793,
      "cg26928972": 2794,
      "cg00332745": 2795,
      "cg27243140": 2796,
      "cg12379145": 2797,
      "cg05657090": 2798,
      "cg19839691": 2799,
      "cg26862286": 2800,
      "cg23400451": 2801,
      "cg00072216": 2802,
      "cg18192417": 2803,
      "cg03469054": 2804,
      "cg17398595": 2805,
      "cg10002561": 2806,
      "cg12792366": 2807,
      "cg01148741": 2808,
      "cg01999333": 2809,
      "cg22830895": 2810,
      "cg13573276": 2811,
      "cg08107767": 2812,
      "cg11233384": 2813,
      "cg27611665": 2814,
      "cg24481633": 2815,
      "cg23824713": 2816,
      "cg07237830": 2817,
      "cg21478437": 2818,
      "cg15552238": 2819,
      "cg20028470": 2820,
      "cg12188560": 2821,
      "cg03109316": 2822,
      "cg12858514": 2823,
      "cg15296858": 2824,
      "cg25530169": 2825,
      "cg10694152": 2826,
      "cg00501366": 2827,
      "cg00837103": 2828,
      "cg25072179": 2829,
      "cg21658946": 2830,
      "cg03499052": 2831,
      "cg26377677": 2832,
      "cg12532500": 2833,
      "cg14871544": 2834,
      "cg08646988": 2835,
      "cg11998307": 2836,
      "cg21961766": 2837,
      "cg26565975": 2838,
      "cg12114524": 2839,
      "cg25856179": 2840,
      "cg03109066": 2841,
      "cg22241124": 2842,
      "cg04916200": 2843,
      "cg26817382": 2844,
      "cg24939733": 2845,
      "cg26499611": 2846,
      "cg02906939": 2847,
      "cg22752533": 2848,
      "cg00141162": 2849,
      "cg08567916": 2850,
      "cg04166304": 2851,
      "cg00519627": 2852,
      "cg13493001": 2853,
      "cg20074371": 2854,
      "cg22338307": 2855,
      "cg11204562": 2856,
      "cg02901122": 2857,
      "cg11011938": 2858,
      "cg23066879": 2859,
      "cg04572898": 2860,
      "cg09793866": 2861,
      "cg15236866": 2862,
      "cg06821274": 2863,
      "cg03716942": 2864,
      "cg11529128": 2865,
      "cg17974185": 2866,
      "cg26782833": 2867,
      "cg17204557": 2868,
      "cg04353483": 2869,
      "cg24979630": 2870,
      "cg16218377": 2871,
      "cg15873301": 2872,
      "cg20913782": 2873,
      "cg18540305": 2874,
      "cg15032239": 2875,
      "cg03279443": 2876,
      "cg12639234": 2877,
      "cg10213812": 2878,
      "cg06716436": 2879,
      "cg09212468": 2880,
      "cg00497251": 2881,
      "cg04448487": 2882,
      "cg26255649": 2883,
      "cg26233209": 2884,
      "cg14121103": 2885,
      "cg08977371": 2886,
      "cg00682653": 2887,
      "cg01110312": 2888,
      "cg04329382": 2889,
      "cg00033773": 2890,
      "cg20481343": 2891,
      "cg21784498": 2892,
      "cg26227465": 2893,
      "cg09963123": 2894,
      "cg19389852": 2895,
      "cg23196133": 2896,
      "cg10409799": 2897,
      "cg00462994": 2898,
      "cg25149927": 2899,
      "cg14764661": 2900,
      "cg11903057": 2901,
      "cg09169283": 2902,
      "cg14795968": 2903,
      "cg15379858": 2904,
      "cg11460364": 2905,
      "cg12888039": 2906,
      "cg21628553": 2907,
      "cg08097882": 2908,
      "cg25902889": 2909,
      "cg15636365": 2910,
      "cg24496666": 2911,
      "cg14360917": 2912,
      "cg27634151": 2913,
      "cg24739326": 2914,
      "cg15520279": 2915,
      "cg11251858": 2916,
      "cg14501253": 2917,
      "cg11592951": 2918,
      "cg23613305": 2919,
      "cg26261431": 2920,
      "cg25756129": 2921,
      "cg04824716": 2922,
      "cg08996521": 2923,
      "cg00769520": 2924,
      "cg25336579": 2925,
      "cg26565838": 2926,
      "cg01169726": 2927,
      "cg03724463": 2928,
      "cg00233307": 2929,
      "cg26073060": 2930,
      "cg18108623": 2931,
      "cg26357744": 2932,
      "cg01500097": 2933,
      "cg01991150": 2934,
      "cg02916816": 2935,
      "cg20776317": 2936,
      "cg16351002": 2937,
      "cg22886005": 2938,
      "cg08647446": 2939,
      "cg08156349": 2940,
      "cg21522988": 2941,
      "cg06851207": 2942,
      "cg09911342": 2943,
      "cg17466535": 2944,
      "cg22469141": 2945,
      "cg13878010": 2946,
      "cg01366419": 2947,
      "cg21068030": 2948,
      "cg16140179": 2949,
      "cg03856450": 2950,
      "cg20356482": 2951,
      "cg10321723": 2952,
      "cg26289824": 2953,
      "cg15321195": 2954,
      "cg05170326": 2955,
      "cg06682185": 2956,
      "cg22068211": 2957,
      "cg12621514": 2958,
      "cg06066303": 2959,
      "cg12693135": 2960,
      "cg02189785": 2961,
      "cg04833845": 2962,
      "cg12706983": 2963,
      "cg00263760": 2964,
      "cg10521852": 2965,
      "cg01618851": 2966,
      "cg02717866": 2967,
      "cg04268405": 2968,
      "cg05337966": 2969,
      "cg06700265": 2970,
      "cg02217814": 2971,
      "cg11653466": 2972,
      "cg07051960": 2973,
      "cg10773869": 2974,
      "cg21960110": 2975,
      "cg00002426": 2976,
      "cg07387450": 2977,
      "cg13258700": 2978,
      "cg13277939": 2979,
      "cg18705776": 2980,
      "cg16293105": 2981,
      "cg12691366": 2982,
      "cg11527279": 2983,
      "cg19857541": 2984,
      "cg14785479": 2985,
      "cg01775265": 2986,
      "cg21600563": 2987,
      "cg11466485": 2988,
      "cg07637239": 2989,
      "cg10634115": 2990,
      "cg13156121": 2991,
      "cg25141674": 2992,
      "cg26683005": 2993,
      "cg27461196": 2994,
      "cg05301852": 2995,
      "cg12043807": 2996,
      "cg05261299": 2997,
      "cg12072001": 2998,
      "cg06950730": 2999,
      "cg19786920": 3000,
      "cg14139633": 3001,
      "cg04764624": 3002,
      "cg13066963": 3003,
      "cg04457794": 3004,
      "cg25934198": 3005,
      "cg11260422": 3006,
      "cg27491887": 3007,
      "cg24824840": 3008,
      "cg16246410": 3009,
      "cg12188860": 3010,
      "cg07193504": 3011,
      "cg21949305": 3012,
      "cg19306866": 3013,
      "cg16270990": 3014,
      "cg12787624": 3015,
      "cg00987379": 3016,
      "cg06575572": 3017,
      "cg13547644": 3018,
      "cg05705583": 3019,
      "cg03438904": 3020,
      "cg00779924": 3021,
      "cg06277657": 3022,
      "cg24997944": 3023,
      "cg11980188": 3024,
      "cg02026235": 3025,
      "cg17414107": 3026,
      "cg20802392": 3027,
      "cg26990660": 3028,
      "cg22892237": 3029,
      "cg12813792": 3030,
      "cg09457245": 3031,
      "cg09434995": 3032,
      "cg18413900": 3033,
      "cg05361373": 3034,
      "cg02671171": 3035,
      "cg18231267": 3036,
      "cg05125838": 3037,
      "cg14272175": 3038,
      "cg23596123": 3039,
      "cg02488871": 3040,
      "cg27596068": 3041,
      "cg17804987": 3042,
      "cg27475152": 3043,
      "cg06353345": 3044,
      "cg24000099": 3045,
      "cg08797194": 3046,
      "cg02009694": 3047,
      "cg03391568": 3048,
      "cg27238470": 3049,
      "cg25358938": 3050,
      "cg11630242": 3051,
      "cg10092957": 3052,
      "cg20419410": 3053,
      "cg10639440": 3054,
      "cg27349746": 3055,
      "cg20616414": 3056,
      "cg08141989": 3057,
      "cg00943245": 3058,
      "cg19555986": 3059,
      "cg12266551": 3060,
      "cg26661481": 3061,
      "cg17965019": 3062,
      "cg02976617": 3063,
      "cg03608577": 3064,
      "cg01998682": 3065,
      "cg25061755": 3066,
      "cg10559803": 3067,
      "cg16896647": 3068,
      "cg05245861": 3069,
      "cg05589246": 3070,
      "cg02065795": 3071,
      "cg14074117": 3072,
      "cg23001650": 3073,
      "cg23328124": 3074,
      "cg20439022": 3075,
      "cg07708788": 3076,
      "cg22680812": 3077,
      "cg17946497": 3078,
      "cg19560971": 3079,
      "cg15430659": 3080,
      "cg06871974": 3081,
      "cg20736065": 3082,
      "cg13975369": 3083,
      "cg12821724": 3084,
      "cg10073875": 3085,
      "cg16880396": 3086,
      "cg07109801": 3087,
      "cg05592398": 3088,
      "cg05659947": 3089,
      "cg13283942": 3090,
      "cg10453365": 3091,
      "cg04228042": 3092,
      "cg13349425": 3093,
      "cg25548825": 3094,
      "cg21233722": 3095,
      "cg21794225": 3096,
      "cg03667047": 3097,
      "cg01994328": 3098,
      "cg02609880": 3099,
      "cg00668685": 3100,
      "cg07772309": 3101,
      "cg20778294": 3102,
      "cg12491368": 3103,
      "cg26453990": 3104,
      "cg23673107": 3105,
      "cg03157149": 3106,
      "cg23680518": 3107,
      "cg10356060": 3108,
      "cg02305723": 3109,
      "cg00554173": 3110,
      "cg08403419": 3111,
      "cg04833050": 3112,
      "cg17252960": 3113,
      "cg18022193": 3114,
      "cg10227191": 3115,
      "cg03085312": 3116,
      "cg04785227": 3117,
      "cg04970117": 3118,
      "cg04483623": 3119,
      "cg13149307": 3120,
      "cg02917064": 3121,
      "cg24352736": 3122,
      "cg09965258": 3123,
      "cg21932814": 3124,
      "cg23441208": 3125,
      "cg23681243": 3126,
      "cg03555909": 3127,
      "cg13913917": 3128,
      "cg11884243": 3129,
      "cg14732136": 3130,
      "cg16821394": 3131,
      "cg05446471": 3132,
      "cg22083047": 3133,
      "cg21700070": 3134,
      "cg21336547": 3135,
      "cg11260848": 3136,
      "cg09266433": 3137,
      "cg05896682": 3138,
      "cg01015879": 3139,
      "cg02856727": 3140,
      "cg13185308": 3141,
      "cg22864416": 3142,
      "cg17745122": 3143,
      "cg12967560": 3144,
      "cg12836863": 3145,
      "cg20166532": 3146,
      "cg07447773": 3147,
      "cg26787505": 3148,
      "cg26833602": 3149,
      "cg27603796": 3150,
      "cg00756887": 3151,
      "cg10822172": 3152,
      "cg10082841": 3153,
      "cg21093060": 3154,
      "cg25211525": 3155,
      "cg05485062": 3156,
      "cg22190114": 3157,
      "cg10948883": 3158,
      "cg18565355": 3159,
      "cg24364574": 3160,
      "cg26614346": 3161,
      "cg22148652": 3162,
      "cg20837735": 3163,
      "cg14242091": 3164,
      "cg25436946": 3165,
      "cg23048366": 3166,
      "cg06044899": 3167,
      "cg13150596": 3168,
      "cg18159180": 3169,
      "cg10247252": 3170,
      "cg23318804": 3171,
      "cg10579246": 3172,
      "cg27138018": 3173,
      "cg15166089": 3174,
      "cg00987015": 3175,
      "cg26024843": 3176,
      "cg04875709": 3177,
      "cg22876908": 3178,
      "cg25840094": 3179,
      "cg23349790": 3180,
      "cg19404190": 3181,
      "cg09375488": 3182,
      "cg04038932": 3183,
      "cg08081725": 3184,
      "cg20972214": 3185,
      "cg07248310": 3186,
      "cg23698058": 3187,
      "cg11471401": 3188,
      "cg02224164": 3189,
      "cg14265670": 3190,
      "cg25751295": 3191,
      "cg06725035": 3192,
      "cg26538214": 3193,
      "cg11256445": 3194,
      "cg05998244": 3195,
      "cg13448401": 3196,
      "cg10762132": 3197,
      "cg11668923": 3198,
      "cg04451988": 3199,
      "cg09196959": 3200,
      "cg14916288": 3201,
      "cg24506604": 3202,
      "cg06462291": 3203,
      "cg18003231": 3204,
      "cg01357116": 3205,
      "cg22262140": 3206,
      "cg20516209": 3207,
      "cg04126866": 3208,
      "cg20083730": 3209,
      "cg08290212": 3210,
      "cg24861272": 3211,
      "cg27081230": 3212,
      "cg19783114": 3213,
      "cg13920529": 3214,
      "cg01454134": 3215,
      "cg23338195": 3216,
      "cg10414058": 3217,
      "cg06818415": 3218,
      "cg08185661": 3219,
      "cg05294455": 3220,
      "cg26259865": 3221,
      "cg25823578": 3222,
      "cg00308133": 3223,
      "cg10562586": 3224,
      "cg07424155": 3225,
      "cg24471894": 3226,
      "cg20322862": 3227,
      "cg21606237": 3228,
      "cg00298357": 3229,
      "cg21636577": 3230,
      "cg23219570": 3231,
      "cg26369642": 3232,
      "cg03860890": 3233,
      "cg23207527": 3234,
      "cg15741583": 3235,
      "cg26239233": 3236,
      "cg03750407": 3237,
      "cg15677294": 3238,
      "cg07851243": 3239,
      "cg07880061": 3240,
      "cg12202913": 3241,
      "cg27159719": 3242,
      "cg10211252": 3243,
      "cg26738010": 3244,
      "cg07512517": 3245,
      "cg13031432": 3246,
      "cg11238505": 3247,
      "cg10277146": 3248,
      "cg24641737": 3249,
      "cg02947222": 3250,
      "cg15940569": 3251,
      "cg04790936": 3252,
      "cg15175266": 3253,
      "cg22074467": 3254,
      "cg10236239": 3255,
      "cg07379574": 3256,
      "cg19257200": 3257,
      "cg03422350": 3258,
      "cg00273124": 3259,
      "cg12928668": 3260,
      "cg26141626": 3261,
      "cg10078829": 3262,
      "cg06892726": 3263,
      "cg18580491": 3264,
      "cg12489960": 3265,
      "cg16954341": 3266,
      "cg21850254": 3267,
      "cg23398241": 3268,
      "cg06850526": 3269,
      "cg17071957": 3270,
      "cg25263140": 3271,
      "cg16501235": 3272,
      "cg01405761": 3273,
      "cg23668631": 3274,
      "cg27619475": 3275,
      "cg22396353": 3276,
      "cg15830940": 3277,
      "cg14127958": 3278,
      "cg14126210": 3279,
      "cg18728606": 3280,
      "cg19814116": 3281,
      "cg08694544": 3282,
      "cg03548857": 3283,
      "cg20303303": 3284,
      "cg15423613": 3285,
      "cg04968473": 3286,
      "cg16242770": 3287,
      "cg08574156": 3288,
      "cg08292050": 3289,
      "cg04049033": 3290,
      "cg18335933": 3291,
      "cg06011292": 3292,
      "cg15298594": 3293,
      "cg12793610": 3294,
      "cg13670595": 3295,
      "cg20234170": 3296,
      "cg07663789": 3297,
      "cg26422060": 3298,
      "cg02868338": 3299,
      "cg08917718": 3300,
      "cg00767581": 3301,
      "cg02859934": 3302,
      "cg22243733": 3303,
      "cg15457079": 3304,
      "cg23620639": 3305,
      "cg07499072": 3306,
      "cg15945417": 3307,
      "cg21846488": 3308,
      "cg05782445": 3309,
      "cg02447314": 3310,
      "cg06740897": 3311,
      "cg01484156": 3312,
      "cg08653874": 3313,
      "cg17385674": 3314,
      "cg01333788": 3315,
      "cg18368125": 3316,
      "cg25181284": 3317,
      "cg22879289": 3318,
      "cg04762346": 3319,
      "cg06244417": 3320,
      "cg22892904": 3321,
      "cg16933388": 3322,
      "cg02150910": 3323,
      "cg22619018": 3324,
      "cg12232463": 3325,
      "cg14287603": 3326,
      "cg19713196": 3327,
      "cg19201019": 3328,
      "cg06781209": 3329,
      "cg21172540": 3330,
      "cg03702236": 3331,
      "cg25999267": 3332,
      "cg10220156": 3333,
      "cg17241657": 3334,
      "cg02813863": 3335,
      "cg14481339": 3336,
      "cg08781448": 3337,
      "cg23695504": 3338,
      "cg03020951": 3339,
      "cg21039822": 3340,
      "cg00616369": 3341,
      "cg04725234": 3342,
      "cg20542190": 3343,
      "cg16826286": 3344,
      "cg13077930": 3345,
      "cg19466563": 3346,
      "cg06043190": 3347,
      "cg21911019": 3348,
      "cg01635061": 3349,
      "cg23587532": 3350,
      "cg18952647": 3351,
      "cg00282347": 3352,
      "cg18557086": 3353,
      "cg03872376": 3354,
      "cg20910746": 3355,
      "cg22115808": 3356,
      "cg22231902": 3357,
      "cg18294158": 3358,
      "cg23260026": 3359,
      "cg10198932": 3360,
      "cg22802739": 3361,
      "cg25759381": 3362,
      "cg07313155": 3363,
      "cg05503412": 3364,
      "cg25245322": 3365,
      "cg17347634": 3366,
      "cg26980692": 3367,
      "cg16286776": 3368,
      "cg06864275": 3369,
      "cg23897067": 3370,
      "cg07270175": 3371,
      "cg18085517": 3372,
      "cg25635352": 3373,
      "cg19531130": 3374,
      "cg09438266": 3375,
      "cg23625458": 3376,
      "cg10920302": 3377,
      "cg08420085": 3378,
      "cg27140220": 3379,
      "cg01643284": 3380,
      "cg19234509": 3381,
      "cg11297236": 3382,
      "cg10337772": 3383,
      "cg20312228": 3384,
      "cg00839802": 3385,
      "cg21686987": 3386,
      "cg24711626": 3387,
      "cg08265265": 3388,
      "cg08448751": 3389,
      "cg10862535": 3390,
      "cg01675895": 3391,
      "cg10183248": 3392,
      "cg20430816": 3393,
      "cg23815491": 3394,
      "cg20427865": 3395,
      "cg07453618": 3396,
      "cg09831311": 3397,
      "cg05026186": 3398,
      "cg24928687": 3399,
      "cg16199381": 3400,
      "cg00563926": 3401,
      "cg11141561": 3402,
      "cg00269115": 3403,
      "cg20458981": 3404,
      "cg17006282": 3405,
      "cg09296044": 3406,
      "cg18654873": 3407,
      "cg21518947": 3408,
      "cg26900034": 3409,
      "cg10345936": 3410,
      "cg16306115": 3411,
      "cg25720804": 3412,
      "cg25737836": 3413,
      "cg21421501": 3414,
      "cg19109431": 3415,
      "cg27077685": 3416,
      "cg21885995": 3417,
      "cg07251857": 3418,
      "cg18223379": 3419,
      "cg10757144": 3420,
      "cg12963312": 3421,
      "cg08490173": 3422,
      "cg11000221": 3423,
      "cg21639968": 3424,
      "cg15887846": 3425,
      "cg15146752": 3426,
      "cg05254747": 3427,
      "cg06465194": 3428,
      "cg02028524": 3429,
      "cg03804568": 3430,
      "cg17189058": 3431,
      "cg18217172": 3432,
      "cg26179948": 3433,
      "cg26516764": 3434,
      "cg10054127": 3435,
      "cg23189044": 3436,
      "cg07186707": 3437,
      "cg27256309": 3438,
      "cg15002187": 3439,
      "cg13030582": 3440,
      "cg26043257": 3441,
      "cg09634802": 3442,
      "cg26718585": 3443,
      "cg11330108": 3444,
      "cg07059052": 3445,
      "cg15679095": 3446,
      "cg22228296": 3447,
      "cg15532088": 3448,
      "cg07789083": 3449,
      "cg25123470": 3450,
      "cg03580876": 3451,
      "cg09938079": 3452,
      "cg18515291": 3453,
      "cg23378495": 3454,
      "cg05252264": 3455,
      "cg26538442": 3456,
      "cg12042678": 3457,
      "cg16998213": 3458,
      "cg05501584": 3459,
      "cg18081313": 3460,
      "cg11304234": 3461,
      "cg19562969": 3462,
      "cg08912400": 3463,
      "cg16732880": 3464,
      "cg00273068": 3465,
      "cg06436504": 3466,
      "cg05932408": 3467,
      "cg14161426": 3468,
      "cg06650260": 3469,
      "cg22198425": 3470,
      "cg07265622": 3471,
      "cg24989962": 3472,
      "cg22016818": 3473,
      "cg13884546": 3474,
      "cg15619125": 3475,
      "cg12164282": 3476,
      "cg08513100": 3477,
      "cg09988116": 3478,
      "cg18595258": 3479,
      "cg21048501": 3480,
      "cg06236061": 3481,
      "cg14324200": 3482,
      "cg08088989": 3483,
      "cg21875234": 3484,
      "cg21626086": 3485,
      "cg13313036": 3486,
      "cg12781568": 3487,
      "cg01399317": 3488,
      "cg08816023": 3489,
      "cg05130485": 3490,
      "cg07758574": 3491,
      "cg24272907": 3492,
      "cg12910797": 3493,
      "cg16847051": 3494,
      "cg22660578": 3495,
      "cg00489401": 3496,
      "cg22190705": 3497,
      "cg27654142": 3498,
      "cg13015534": 3499,
      "cg19373170": 3500,
      "cg19383689": 3501,
      "cg16834187": 3502,
      "cg25552492": 3503,
      "cg14230685": 3504,
      "cg12302621": 3505,
      "cg23036025": 3506,
      "cg07103493": 3507,
      "cg26304237": 3508,
      "cg16245261": 3509,
      "cg05213296": 3510,
      "cg12003230": 3511,
      "cg11396509": 3512,
      "cg01265637": 3513,
      "cg08383315": 3514,
      "cg23430664": 3515,
      "cg01541443": 3516,
      "cg11023442": 3517,
      "cg26365553": 3518,
      "cg27000831": 3519,
      "cg01505176": 3520,
      "cg00528967": 3521,
      "cg15516226": 3522,
      "cg21008828": 3523,
      "cg18830459": 3524,
      "cg24284910": 3525,
      "cg02330106": 3526,
      "cg05874450": 3527,
      "cg27394486": 3528,
      "cg25375764": 3529,
      "cg13784792": 3530,
      "cg04682845": 3531,
      "cg13176285": 3532,
      "cg00384537": 3533,
      "cg23517605": 3534,
      "cg15703357": 3535,
      "cg16158220": 3536,
      "cg10379687": 3537,
      "cg10805667": 3538,
      "cg21303386": 3539,
      "cg13587552": 3540,
      "cg07846220": 3541,
      "cg21287330": 3542,
      "cg06918467": 3543,
      "cg02639007": 3544,
      "cg22030890": 3545,
      "cg06800962": 3546,
      "cg05937182": 3547,
      "cg04780454": 3548,
      "cg12936220": 3549,
      "cg23303074": 3550,
      "cg17179881": 3551,
      "cg26717133": 3552,
      "cg13894021": 3553,
      "cg12206093": 3554,
      "cg12839593": 3555,
      "cg08003150": 3556,
      "cg20675440": 3557,
      "cg17330200": 3558,
      "cg22229142": 3559,
      "cg25737491": 3560,
      "cg03535648": 3561,
      "cg00145118": 3562,
      "cg26096837": 3563,
      "cg01172899": 3564,
      "cg18343862": 3565,
      "cg24847163": 3566,
      "cg08101264": 3567,
      "cg13614181": 3568,
      "cg21053323": 3569,
      "cg07595943": 3570,
      "cg26626042": 3571,
      "cg14450506": 3572,
      "cg14755852": 3573,
      "cg15597540": 3574,
      "cg13353683": 3575,
      "cg15903421": 3576,
      "cg24468890": 3577,
      "cg04337944": 3578,
      "cg02154956": 3579,
      "cg01966105": 3580,
      "cg19642007": 3581,
      "cg10942056": 3582,
      "cg16330965": 3583,
      "cg12598575": 3584,
      "cg01605783": 3585,
      "cg11547724": 3586,
      "cg21270593": 3587,
      "cg19884658": 3588,
      "cg02245418": 3589,
      "cg27190537": 3590,
      "cg21627181": 3591,
      "cg06537230": 3592,
      "cg09076077": 3593,
      "cg07179770": 3594,
      "cg22763181": 3595,
      "cg16194715": 3596,
      "cg13121699": 3597,
      "cg23208881": 3598,
      "cg00887700": 3599,
      "cg00344372": 3600,
      "cg12788467": 3601,
      "cg20847746": 3602,
      "cg16812893": 3603,
      "cg02990033": 3604,
      "cg21975377": 3605,
      "cg22492020": 3606,
      "cg05749577": 3607,
      "cg09958090": 3608,
      "cg14513226": 3609,
      "cg20199333": 3610,
      "cg21434954": 3611,
      "cg22593785": 3612,
      "cg10892866": 3613,
      "cg17483510": 3614,
      "cg26185508": 3615,
      "cg16685388": 3616,
      "cg09630437": 3617,
      "cg21250577": 3618,
      "cg18577494": 3619,
      "cg26416466": 3620,
      "cg25577842": 3621,
      "cg17921034": 3622,
      "cg23833452": 3623,
      "cg09816471": 3624,
      "cg12869058": 3625,
      "cg03054529": 3626,
      "cg25937494": 3627,
      "cg01261503": 3628,
      "cg03302287": 3629,
      "cg12317456": 3630,
      "cg18248112": 3631,
      "cg12598178": 3632,
      "cg22445920": 3633,
      "cg05236474": 3634,
      "cg02516388": 3635,
      "cg07099627": 3636,
      "cg04425624": 3637,
      "cg20033731": 3638,
      "cg11063110": 3639,
      "cg26536164": 3640,
      "cg00174500": 3641,
      "cg21608489": 3642,
      "cg24298280": 3643,
      "cg14143055": 3644,
      "cg01584473": 3645,
      "cg21745320": 3646,
      "cg25978208": 3647,
      "cg18333690": 3648,
      "cg18277754": 3649,
      "cg10072995": 3650,
      "cg02622316": 3651,
      "cg02909790": 3652,
      "cg14829378": 3653,
      "cg03289872": 3654,
      "cg18123948": 3655,
      "cg26215428": 3656,
      "cg11356705": 3657,
      "cg01773854": 3658,
      "cg22266967": 3659,
      "cg22799321": 3660,
      "cg25010118": 3661,
      "cg16547341": 3662,
      "cg23665603": 3663,
      "cg10923408": 3664,
      "cg25447894": 3665,
      "cg23090824": 3666,
      "cg17980508": 3667,
      "cg13179983": 3668,
      "cg17099569": 3669,
      "cg26183662": 3670,
      "cg21035142": 3671,
      "cg20656116": 3672,
      "cg27590397": 3673,
      "cg15878317": 3674,
      "cg03840259": 3675,
      "cg08527127": 3676,
      "cg26381783": 3677,
      "cg02044879": 3678,
      "cg21486954": 3679,
      "cg11241627": 3680,
      "cg14401454": 3681,
      "cg19570317": 3682,
      "cg12741420": 3683,
      "cg08635249": 3684,
      "cg27015047": 3685,
      "cg12991365": 3686,
      "cg00755043": 3687,
      "cg19357849": 3688,
      "cg02084087": 3689,
      "cg25781202": 3690,
      "cg24107142": 3691,
      "cg26113512": 3692,
      "cg21145624": 3693,
      "cg02192965": 3694,
      "cg17055145": 3695,
      "cg25241845": 3696,
      "cg25097436": 3697,
      "cg20916523": 3698,
      "cg05677402": 3699,
      "cg25533361": 3700,
      "cg15113803": 3701,
      "cg17165760": 3702,
      "cg11504897": 3703,
      "cg22127491": 3704,
      "cg11226328": 3705,
      "cg01657408": 3706,
      "cg12688215": 3707,
      "cg13319175": 3708,
      "cg24305835": 3709,
      "cg20021244": 3710,
      "cg08145590": 3711,
      "cg15479752": 3712,
      "cg03652343": 3713,
      "cg12598198": 3714,
      "cg15185804": 3715,
      "cg16701105": 3716,
      "cg23654219": 3717,
      "cg04265576": 3718,
      "cg13599025": 3719,
      "cg14435640": 3720,
      "cg08603768": 3721,
      "cg23905308": 3722,
      "cg21387281": 3723,
      "cg16076328": 3724,
      "cg06318164": 3725,
      "cg23779106": 3726,
      "cg04072323": 3727,
      "cg10315334": 3728,
      "cg21309147": 3729,
      "cg05164634": 3730,
      "cg08263357": 3731,
      "cg13694749": 3732,
      "cg21513385": 3733,
      "cg01263716": 3734,
      "cg18087477": 3735,
      "cg02387679": 3736,
      "cg23786576": 3737,
      "cg01703884": 3738,
      "cg02335441": 3739,
      "cg18873386": 3740,
      "cg26689483": 3741,
      "cg08300860": 3742,
      "cg14844130": 3743,
      "cg15109207": 3744,
      "cg09522147": 3745,
      "cg26504906": 3746,
      "cg12776163": 3747,
      "cg23983340": 3748,
      "cg09514038": 3749,
      "cg09937039": 3750,
      "cg17166338": 3751,
      "cg22833175": 3752,
      "cg25391023": 3753,
      "cg00466249": 3754,
      "cg16899036": 3755,
      "cg19005368": 3756,
      "cg06836736": 3757,
      "cg15607672": 3758,
      "cg25372135": 3759,
      "cg03292388": 3760,
      "cg24101578": 3761,
      "cg11825652": 3762,
      "cg03266904": 3763,
      "cg20436912": 3764,
      "cg26952662": 3765,
      "cg08132711": 3766,
      "cg23792978": 3767,
      "cg01883966": 3768,
      "cg03064067": 3769,
      "cg21272774": 3770,
      "cg22572159": 3771,
      "cg09954385": 3772,
      "cg05719902": 3773,
      "cg08292112": 3774,
      "cg12600197": 3775,
      "cg01958189": 3776,
      "cg23076086": 3777,
      "cg04745698": 3778,
      "cg19693403": 3779,
      "cg16052901": 3780,
      "cg13954292": 3781,
      "cg26357241": 3782,
      "cg02151301": 3783,
      "cg09475324": 3784,
      "cg01493517": 3785,
      "cg14046757": 3786,
      "cg03621001": 3787,
      "cg20672744": 3788,
      "cg17398283": 3789,
      "cg15046735": 3790,
      "cg24269657": 3791,
      "cg01137708": 3792,
      "cg25159668": 3793,
      "cg10563284": 3794,
      "cg10226546": 3795,
      "cg10524192": 3796,
      "cg19778698": 3797,
      "cg19464016": 3798,
      "cg07642638": 3799,
      "cg02491878": 3800,
      "cg15623573": 3801,
      "cg14830952": 3802,
      "cg18452600": 3803,
      "cg24829483": 3804,
      "cg01261535": 3805,
      "cg04454050": 3806,
      "cg16606185": 3807,
      "cg17173423": 3808,
      "cg13689073": 3809,
      "cg01505590": 3810,
      "cg22220722": 3811,
      "cg05280555": 3812,
      "cg17605847": 3813,
      "cg26208930": 3814,
      "cg06171787": 3815,
      "cg04726446": 3816,
      "cg08126211": 3817,
      "cg15198335": 3818,
      "cg10358212": 3819,
      "cg10039928": 3820,
      "cg04006554": 3821,
      "cg20277416": 3822,
      "cg17758721": 3823,
      "cg27586455": 3824,
      "cg05546044": 3825,
      "cg16829154": 3826,
      "cg04614380": 3827,
      "cg02226871": 3828,
      "cg17298704": 3829,
      "cg15329866": 3830,
      "cg03803009": 3831,
      "cg22307908": 3832,
      "cg02920216": 3833,
      "cg12506971": 3834,
      "cg01936124": 3835,
      "cg20015855": 3836,
      "cg07566050": 3837,
      "cg24892510": 3838,
      "cg00499822": 3839,
      "cg23114866": 3840,
      "cg06140118": 3841,
      "cg24562819": 3842,
      "cg19434221": 3843,
      "cg21591452": 3844,
      "cg14688272": 3845,
      "cg19400876": 3846,
      "cg05141870": 3847,
      "cg25990314": 3848,
      "cg20881910": 3849,
      "cg05881762": 3850,
      "cg06811800": 3851,
      "cg10300154": 3852,
      "cg20147100": 3853,
      "cg07242414": 3854,
      "cg07618900": 3855,
      "cg06425556": 3856,
      "cg15612847": 3857,
      "cg26136776": 3858,
      "cg02163937": 3859,
      "cg16218254": 3860,
      "cg24210717": 3861,
      "cg17602451": 3862,
      "cg10180697": 3863,
      "cg14419187": 3864,
      "cg05886367": 3865,
      "cg23900225": 3866,
      "cg02885771": 3867,
      "cg05871136": 3868,
      "cg25964007": 3869,
      "cg24674220": 3870,
      "cg13982505": 3871,
      "cg22527415": 3872,
      "cg23753610": 3873,
      "cg23211240": 3874,
      "cg06090421": 3875,
      "cg22631938": 3876,
      "cg18424091": 3877,
      "cg22638542": 3878,
      "cg00925717": 3879,
      "cg15321211": 3880,
      "cg21584430": 3881,
      "cg02196655": 3882,
      "cg22335801": 3883,
      "cg04289385": 3884,
      "cg14847688": 3885,
      "cg09085639": 3886,
      "cg06641366": 3887,
      "cg04329454": 3888,
      "cg01687051": 3889,
      "cg02868123": 3890,
      "cg02938601": 3891,
      "cg09970396": 3892,
      "cg17277939": 3893,
      "cg00807586": 3894,
      "cg26746469": 3895,
      "cg12535715": 3896,
      "cg14434255": 3897,
      "cg25832796": 3898,
      "cg22359217": 3899,
      "cg03375002": 3900,
      "cg20247102": 3901,
      "cg06189133": 3902,
      "cg24580526": 3903,
      "cg25707005": 3904,
      "cg13153865": 3905,
      "cg01805784": 3906,
      "cg19685066": 3907,
      "cg21435394": 3908,
      "cg20281815": 3909,
      "cg00491404": 3910,
      "cg19462352": 3911,
      "cg00237010": 3912,
      "cg03732545": 3913,
      "cg18763191": 3914,
      "cg18105315": 3915,
      "cg06051311": 3916,
      "cg20394284": 3917,
      "cg16721845": 3918,
      "cg17079378": 3919,
      "cg21410991": 3920,
      "cg13058581": 3921,
      "cg11763112": 3922,
      "cg27652350": 3923,
      "cg21269934": 3924,
      "cg09137696": 3925,
      "cg04463638": 3926,
      "cg18815943": 3927,
      "cg17718210": 3928,
      "cg09872233": 3929,
      "cg13332925": 3930,
      "cg06806711": 3931,
      "cg05352668": 3932,
      "cg02218260": 3933,
      "cg12266024": 3934,
      "cg04640913": 3935,
      "cg06630737": 3936,
      "cg16000888": 3937,
      "cg02751839": 3938,
      "cg14375111": 3939,
      "cg26170660": 3940,
      "cg09686308": 3941,
      "cg01775414": 3942,
      "cg12179044": 3943,
      "cg26153631": 3944,
      "cg04735745": 3945,
      "cg16483466": 3946,
      "cg07697569": 3947,
      "cg06087537": 3948,
      "cg16984812": 3949,
      "cg02066681": 3950,
      "cg08996748": 3951,
      "cg10917602": 3952,
      "cg13051968": 3953,
      "cg17214107": 3954,
      "cg16063112": 3955,
      "cg22730830": 3956,
      "cg26057752": 3957,
      "cg18127191": 3958,
      "cg05362669": 3959,
      "cg25852941": 3960,
      "cg23671708": 3961,
      "cg21591742": 3962,
      "cg02121427": 3963,
      "cg27557796": 3964,
      "cg13675849": 3965,
      "cg18954434": 3966,
      "cg00084687": 3967,
      "cg08823182": 3968,
      "cg20286200": 3969,
      "cg26299767": 3970,
      "cg20720686": 3971,
      "cg27390220": 3972,
      "cg14787704": 3973,
      "cg19784477": 3974,
      "cg02200132": 3975,
      "cg01653445": 3976,
      "cg19886179": 3977,
      "cg11265941": 3978,
      "cg04740359": 3979,
      "cg01634119": 3980,
      "cg04305913": 3981,
      "cg07125166": 3982,
      "cg15602950": 3983,
      "cg18399321": 3984,
      "cg17423978": 3985,
      "cg16225091": 3986,
      "cg11368643": 3987,
      "cg12265604": 3988,
      "cg10520887": 3989,
      "cg15694180": 3990,
      "cg20098478": 3991,
      "cg10722799": 3992,
      "cg00132141": 3993,
      "cg15983520": 3994,
      "cg10498097": 3995,
      "cg09722555": 3996,
      "cg02126638": 3997,
      "cg05861567": 3998,
      "cg18384168": 3999,
      "cg15094912": 4000,
      "cg20328328": 4001,
      "cg17504145": 4002,
      "cg05769161": 4003,
      "cg03657766": 4004,
      "cg07115304": 4005,
      "cg01144286": 4006,
      "cg10457247": 4007,
      "cg24685926": 4008,
      "cg15544721": 4009,
      "cg04329069": 4010,
      "cg26960719": 4011,
      "cg09179845": 4012,
      "cg05728656": 4013,
      "cg25949363": 4014,
      "cg06958829": 4015,
      "cg14847483": 4016,
      "cg23698287": 4017,
      "cg13828758": 4018,
      "cg21974239": 4019,
      "cg12941369": 4020,
      "cg04960652": 4021,
      "cg15852879": 4022,
      "cg00953277": 4023,
      "cg03973663": 4024,
      "cg26680127": 4025,
      "cg01851399": 4026,
      "cg04488758": 4027,
      "cg08703595": 4028,
      "cg03510310": 4029,
      "cg17043366": 4030,
      "cg21096399": 4031,
      "cg09160477": 4032,
      "cg03138091": 4033,
      "cg00677811": 4034,
      "cg18434152": 4035,
      "cg26681123": 4036,
      "cg18422795": 4037,
      "cg20091107": 4038,
      "cg26054395": 4039,
      "cg27269917": 4040,
      "cg00108454": 4041,
      "cg25302419": 4042,
      "cg08880153": 4043,
      "cg12783776": 4044,
      "cg05978187": 4045,
      "cg11081833": 4046,
      "cg07248043": 4047,
      "cg24182328": 4048,
      "cg20090497": 4049,
      "cg17568035": 4050,
      "cg12846938": 4051,
      "cg00770279": 4052,
      "cg14871138": 4053,
      "cg10313673": 4054,
      "cg17963089": 4055,
      "cg23612220": 4056,
      "cg11094938": 4057,
      "cg02210887": 4058,
      "cg12351433": 4059,
      "cg06251489": 4060,
      "cg05847778": 4061,
      "cg21716693": 4062,
      "cg12200412": 4063,
      "cg02706881": 4064,
      "cg22182945": 4065,
      "cg24027679": 4066,
      "cg21197973": 4067,
      "cg03067226": 4068,
      "cg13649728": 4069,
      "cg11003133": 4070,
      "cg19824441": 4071,
      "cg20420433": 4072,
      "cg18719814": 4073,
      "cg16792632": 4074,
      "cg03460682": 4075,
      "cg14831798": 4076,
      "cg15062795": 4077,
      "cg01185754": 4078,
      "cg18043104": 4079,
      "cg22907065": 4080,
      "cg02564523": 4081,
      "cg17913068": 4082,
      "cg03283694": 4083,
      "cg24450157": 4084,
      "cg17795240": 4085,
      "cg06366981": 4086,
      "cg25734864": 4087,
      "cg10186456": 4088,
      "cg16284292": 4089,
      "cg03082060": 4090,
      "cg11403598": 4091,
      "cg07882535": 4092,
      "cg24215727": 4093,
      "cg14353162": 4094,
      "cg06121469": 4095,
      "cg11715903": 4096,
      "cg12080812": 4097,
      "cg18296405": 4098,
      "cg08090640": 4099,
      "cg26252167": 4100,
      "cg22566906": 4101,
      "cg23173910": 4102,
      "cg20795401": 4103,
      "cg15234096": 4104,
      "cg21731286": 4105,
      "cg14400118": 4106,
      "cg16993794": 4107,
      "cg02327719": 4108,
      "cg09412715": 4109,
      "cg11715999": 4110,
      "cg08568512": 4111,
      "cg00796728": 4112,
      "cg05259765": 4113,
      "cg25124030": 4114,
      "cg14225485": 4115,
      "cg15377649": 4116,
      "cg18573251": 4117,
      "cg25048564": 4118,
      "cg11115427": 4119,
      "cg12439899": 4120,
      "cg08804892": 4121,
      "cg07929310": 4122,
      "cg18833140": 4123,
      "cg24262376": 4124,
      "cg20182358": 4125,
      "cg15611364": 4126,
      "cg15250507": 4127,
      "cg07688613": 4128,
      "cg23092086": 4129,
      "cg17866455": 4130,
      "cg14321743": 4131,
      "cg13526007": 4132,
      "cg12663253": 4133,
      "cg21168884": 4134,
      "cg12629244": 4135,
      "cg24499411": 4136,
      "cg18986964": 4137,
      "cg08785155": 4138,
      "cg03617367": 4139,
      "cg11846956": 4140,
      "cg05569220": 4141,
      "cg23158811": 4142,
      "cg19567046": 4143,
      "cg05575043": 4144,
      "cg18729973": 4145,
      "cg07006526": 4146,
      "cg01755369": 4147,
      "cg04559909": 4148,
      "cg11154879": 4149,
      "cg25095814": 4150,
      "cg09527362": 4151,
      "cg26778807": 4152,
      "cg08727202": 4153,
      "cg07888234": 4154,
      "cg03065202": 4155,
      "cg03100752": 4156,
      "cg13119609": 4157,
      "cg05526376": 4158,
      "cg07572341": 4159,
      "cg09936839": 4160,
      "cg24580185": 4161,
      "cg27554782": 4162,
      "cg07172280": 4163,
      "cg03287877": 4164,
      "cg15660498": 4165,
      "cg12279128": 4166,
      "cg21051423": 4167,
      "cg09306675": 4168,
      "cg08927738": 4169,
      "cg06235429": 4170,
      "cg03931808": 4171,
      "cg08412305": 4172,
      "cg07826255": 4173,
      "cg24385322": 4174,
      "cg24691461": 4175,
      "cg26372517": 4176,
      "cg21218093": 4177,
      "cg14265075": 4178,
      "cg05769169": 4179,
      "cg20043466": 4180,
      "cg14070162": 4181,
      "cg13726463": 4182,
      "cg01868559": 4183,
      "cg09056317": 4184,
      "cg02546521": 4185,
      "cg23845507": 4186,
      "cg09408780": 4187,
      "cg08972170": 4188,
      "cg09822907": 4189,
      "cg06490988": 4190,
      "cg01248426": 4191,
      "cg00292971": 4192,
      "cg17446142": 4193,
      "cg21235838": 4194,
      "cg26091981": 4195,
      "cg05288569": 4196,
      "cg23818978": 4197,
      "cg08308286": 4198,
      "cg07867360": 4199,
      "cg01906055": 4200,
      "cg19709625": 4201,
      "cg09106999": 4202,
      "cg14108394": 4203,
      "cg07640820": 4204,
      "cg08177017": 4205,
      "cg13431205": 4206,
      "cg14155482": 4207,
      "cg17063929": 4208,
      "cg13397379": 4209,
      "cg00955230": 4210,
      "cg03000846": 4211,
      "cg03192551": 4212,
      "cg16749578": 4213,
      "cg00888479": 4214,
      "cg01352882": 4215,
      "cg13481359": 4216,
      "cg04739149": 4217,
      "cg04296434": 4218,
      "cg20131685": 4219,
      "cg22175764": 4220,
      "cg17832162": 4221,
      "cg24012887": 4222,
      "cg22165507": 4223,
      "cg27563210": 4224,
      "cg14201617": 4225,
      "cg27234090": 4226,
      "cg09682183": 4227,
      "cg05163057": 4228,
      "cg10335112": 4229,
      "cg21578906": 4230,
      "cg00638514": 4231,
      "cg03846767": 4232,
      "cg12205591": 4233,
      "cg03355526": 4234,
      "cg25764570": 4235,
      "cg16641915": 4236,
      "cg17317962": 4237,
      "cg02332525": 4238,
      "cg14822966": 4239,
      "cg18060199": 4240,
      "cg15750705": 4241,
      "cg24276445": 4242,
      "cg23180365": 4243,
      "cg15836394": 4244,
      "cg11868900": 4245,
      "cg05368762": 4246,
      "cg15896447": 4247,
      "cg15083233": 4248,
      "cg09638834": 4249,
      "cg05380570": 4250,
      "cg25944700": 4251,
      "cg23282674": 4252,
      "cg03159785": 4253,
      "cg02657438": 4254,
      "cg00095526": 4255,
      "cg07177852": 4256,
      "cg19026260": 4257,
      "cg11108890": 4258,
      "cg00816620": 4259,
      "cg21283680": 4260,
      "cg02131853": 4261,
      "cg23749046": 4262,
      "cg07753644": 4263,
      "cg15819171": 4264,
      "cg25808906": 4265,
      "cg27208307": 4266,
      "cg01726775": 4267,
      "cg21790626": 4268,
      "cg15399561": 4269,
      "cg03311036": 4270,
      "cg11223864": 4271,
      "cg19427610": 4272,
      "cg08933517": 4273,
      "cg12420104": 4274,
      "cg01240931": 4275,
      "cg12939527": 4276,
      "cg06392426": 4277,
      "cg06615861": 4278,
      "cg12771281": 4279,
      "cg25677709": 4280,
      "cg20451680": 4281,
      "cg14709481": 4282,
      "cg19511844": 4283,
      "cg13899108": 4284,
      "cg24429836": 4285,
      "cg17731079": 4286,
      "cg10435003": 4287,
      "cg01729862": 4288,
      "cg08907850": 4289,
      "cg00405677": 4290,
      "cg01566404": 4291,
      "cg11418559": 4292,
      "cg14013604": 4293,
      "cg04490714": 4294,
      "cg07364841": 4295,
      "cg06954481": 4296,
      "cg01031251": 4297,
      "cg04993257": 4298,
      "cg14727952": 4299,
      "cg26035366": 4300,
      "cg18904346": 4301,
      "cg09640202": 4302,
      "cg19017420": 4303,
      "cg16193203": 4304,
      "cg22699062": 4305,
      "cg12168164": 4306,
      "cg04622802": 4307,
      "cg21226234": 4308,
      "cg23582919": 4309,
      "cg06506156": 4310,
      "cg18618334": 4311,
      "cg27449959": 4312,
      "cg13470920": 4313,
      "cg01150454": 4314,
      "cg05942970": 4315,
      "cg27050793": 4316,
      "cg14015044": 4317,
      "cg12686915": 4318,
      "cg21303011": 4319,
      "cg09260441": 4320,
      "cg03605761": 4321,
      "cg09156233": 4322,
      "cg10977115": 4323,
      "cg02162950": 4324,
      "cg04711324": 4325,
      "cg16391151": 4326,
      "cg20616836": 4327,
      "cg10241097": 4328,
      "cg16176301": 4329,
      "cg08725962": 4330,
      "cg03861428": 4331,
      "cg21030598": 4332,
      "cg09448875": 4333,
      "cg25853833": 4334,
      "cg11465372": 4335,
      "cg15501381": 4336,
      "cg18640030": 4337,
      "cg00066816": 4338,
      "cg04398978": 4339,
      "cg18790143": 4340,
      "cg07016325": 4341,
      "cg09243021": 4342,
      "cg06339706": 4343,
      "cg17714794": 4344,
      "cg10934032": 4345,
      "cg25612480": 4346,
      "cg23216015": 4347,
      "cg03389164": 4348,
      "cg02254649": 4349,
      "cg15225105": 4350,
      "cg13259290": 4351,
      "cg17009433": 4352,
      "cg12990410": 4353,
      "cg02347487": 4354,
      "cg17906786": 4355,
      "cg14550518": 4356,
      "cg07196761": 4357,
      "cg20769774": 4358,
      "cg22776578": 4359,
      "cg20373326": 4360,
      "cg21572897": 4361,
      "cg13352306": 4362,
      "cg11905617": 4363,
      "cg20406482": 4364,
      "cg25956985": 4365,
      "cg07634706": 4366,
      "cg20444256": 4367,
      "cg02276665": 4368,
      "cg21458116": 4369,
      "cg11286122": 4370,
      "cg26750747": 4371,
      "cg00891278": 4372,
      "cg10362591": 4373,
      "cg07912181": 4374,
      "cg22252999": 4375,
      "cg09648233": 4376,
      "cg15842276": 4377,
      "cg22284302": 4378,
      "cg11608114": 4379,
      "cg04623955": 4380,
      "cg22937320": 4381,
      "cg26940261": 4382,
      "cg26894575": 4383,
      "cg01900364": 4384,
      "cg03330678": 4385,
      "cg16302441": 4386,
      "cg12619509": 4387,
      "cg03699904": 4388,
      "cg22821324": 4389,
      "cg01443067": 4390,
      "cg08563994": 4391,
      "cg25363317": 4392,
      "cg16957313": 4393,
      "cg11715966": 4394,
      "cg16530429": 4395,
      "cg23273897": 4396,
      "cg10479325": 4397,
      "cg23412850": 4398,
      "cg14934821": 4399,
      "cg05440289": 4400,
      "cg00226923": 4401,
      "cg04123507": 4402,
      "cg03349935": 4403,
      "cg01510051": 4404,
      "cg24101359": 4405,
      "cg05647526": 4406,
      "cg18585306": 4407,
      "cg03863149": 4408,
      "cg03521600": 4409,
      "cg02331561": 4410,
      "cg06822995": 4411,
      "cg19042947": 4412,
      "cg04515001": 4413,
      "cg27444994": 4414,
      "cg18212039": 4415,
      "cg19136075": 4416,
      "cg17181653": 4417,
      "cg04269351": 4418,
      "cg08179907": 4419,
      "cg19483159": 4420,
      "cg02854288": 4421,
      "cg00105470": 4422,
      "cg05624932": 4423,
      "cg24208172": 4424,
      "cg14378057": 4425,
      "cg16041611": 4426,
      "cg08924430": 4427,
      "cg27313662": 4428,
      "cg07357256": 4429,
      "cg12319004": 4430,
      "cg02344238": 4431,
      "cg06782692": 4432,
      "cg16155382": 4433,
      "cg22918700": 4434,
      "cg03558807": 4435,
      "cg26229607": 4436,
      "cg02801598": 4437,
      "cg02646854": 4438,
      "cg25119415": 4439,
      "cg20932765": 4440,
      "cg09594067": 4441,
      "cg00877964": 4442,
      "cg24748786": 4443,
      "cg00565075": 4444,
      "cg19157971": 4445,
      "cg11609154": 4446,
      "cg15187606": 4447,
      "cg17910564": 4448,
      "cg02068676": 4449,
      "cg17022914": 4450,
      "cg26838900": 4451,
      "cg13681935": 4452,
      "cg22719623": 4453,
      "cg07979752": 4454,
      "cg15293750": 4455,
      "cg25673373": 4456,
      "cg01593385": 4457,
      "cg22946876": 4458,
      "cg10954182": 4459,
      "cg01643580": 4460,
      "cg15301525": 4461,
      "cg23585575": 4462,
      "cg05073845": 4463,
      "cg14618681": 4464,
      "cg27227797": 4465,
      "cg22233974": 4466,
      "cg02144298": 4467,
      "cg11713008": 4468,
      "cg15201291": 4469,
      "cg19790294": 4470,
      "cg09547777": 4471,
      "cg23141855": 4472,
      "cg08970694": 4473,
      "cg23839680": 4474,
      "cg10137010": 4475,
      "cg10215884": 4476,
      "cg03336167": 4477,
      "cg11051139": 4478,
      "cg23801057": 4479,
      "cg23337382": 4480,
      "cg16480209": 4481,
      "cg24363955": 4482,
      "cg12556325": 4483,
      "cg06675478": 4484,
      "cg19391527": 4485,
      "cg19027571": 4486,
      "cg14592065": 4487,
      "cg12800028": 4488,
      "cg16011258": 4489,
      "cg14453641": 4490,
      "cg04533291": 4491,
      "cg20843052": 4492,
      "cg03544379": 4493,
      "cg15156844": 4494,
      "cg04435377": 4495,
      "cg11016563": 4496,
      "cg19372178": 4497,
      "cg08139833": 4498,
      "cg06202984": 4499,
      "cg24335149": 4500,
      "cg11778001": 4501,
      "cg17186444": 4502,
      "cg14672622": 4503,
      "cg05279707": 4504,
      "cg16519321": 4505,
      "cg03077836": 4506,
      "cg18936744": 4507,
      "cg25902460": 4508,
      "cg04491089": 4509,
      "cg25513133": 4510,
      "cg01274324": 4511,
      "cg22290566": 4512,
      "cg03221914": 4513,
      "cg11100802": 4514,
      "cg11051843": 4515,
      "cg22140675": 4516,
      "cg22813220": 4517,
      "cg09948350": 4518,
      "cg24214470": 4519,
      "cg18759110": 4520,
      "cg10553028": 4521,
      "cg03854071": 4522,
      "cg01630869": 4523,
      "cg21747271": 4524,
      "cg15727249": 4525,
      "cg26277709": 4526,
      "cg07114024": 4527,
      "cg23081213": 4528,
      "cg15740366": 4529,
      "cg03403539": 4530,
      "cg21930712": 4531,
      "cg02075593": 4532,
      "cg20688340": 4533,
      "cg08216792": 4534,
      "cg18895813": 4535,
      "cg09092161": 4536,
      "cg10667970": 4537,
      "cg05843800": 4538,
      "cg02196730": 4539,
      "cg13678049": 4540,
      "cg04600618": 4541,
      "cg14212314": 4542,
      "cg21008709": 4543,
      "cg07685221": 4544,
      "cg00824109": 4545,
      "cg26850754": 4546,
      "cg18915211": 4547,
      "cg19961522": 4548,
      "cg21065990": 4549,
      "cg23833896": 4550,
      "cg11657808": 4551,
      "cg22438810": 4552,
      "cg24399106": 4553,
      "cg06593568": 4554,
      "cg24371383": 4555,
      "cg14532519": 4556,
      "cg01091448": 4557,
      "cg27091343": 4558,
      "cg15823100": 4559,
      "cg10948777": 4560,
      "cg22381196": 4561,
      "cg00475955": 4562,
      "cg15547534": 4563,
      "cg16717225": 4564,
      "cg26233468": 4565,
      "cg14717170": 4566,
      "cg23627134": 4567,
      "cg24986868": 4568,
      "cg03966406": 4569,
      "cg10141715": 4570,
      "cg26651233": 4571,
      "cg08624249": 4572,
      "cg00446235": 4573,
      "cg07251788": 4574,
      "cg17682309": 4575,
      "cg11105610": 4576,
      "cg02929869": 4577,
      "cg14409958": 4578,
      "cg18670235": 4579,
      "cg00943909": 4580,
      "cg24307225": 4581,
      "cg12185908": 4582,
      "cg11843691": 4583,
      "cg11719297": 4584,
      "cg05396987": 4585,
      "cg17400229": 4586,
      "cg12658552": 4587,
      "cg22194129": 4588,
      "cg20346726": 4589,
      "cg06084735": 4590,
      "cg07773116": 4591,
      "cg10570177": 4592,
      "cg08812936": 4593,
      "cg23707493": 4594,
      "cg20441175": 4595,
      "cg16112157": 4596,
      "cg13255190": 4597,
      "cg24378421": 4598,
      "cg23855121": 4599,
      "cg15768270": 4600,
      "cg09674867": 4601,
      "cg14869028": 4602,
      "cg14482322": 4603,
      "cg11913104": 4604,
      "cg26060255": 4605,
      "cg07675169": 4606,
      "cg26349773": 4607,
      "cg18552939": 4608,
      "cg06188683": 4609,
      "cg14261309": 4610,
      "cg03539474": 4611,
      "cg09837648": 4612,
      "cg11802013": 4613,
      "cg23310538": 4614,
      "cg20484352": 4615,
      "cg05215575": 4616,
      "cg06207804": 4617,
      "cg17797815": 4618,
      "cg18053607": 4619,
      "cg01168201": 4620,
      "cg20180148": 4621,
      "cg01372605": 4622,
      "cg15684563": 4623,
      "cg25957124": 4624,
      "cg13564075": 4625,
      "cg25446086": 4626,
      "cg21856603": 4627,
      "cg15046693": 4628,
      "cg06213598": 4629,
      "cg08411049": 4630,
      "cg09107315": 4631,
      "cg25141490": 4632,
      "cg24244000": 4633,
      "cg09081544": 4634,
      "cg26139360": 4635,
      "cg12547930": 4636,
      "cg05369166": 4637,
      "cg16491909": 4638,
      "cg15563993": 4639,
      "cg06138027": 4640,
      "cg22234344": 4641,
      "cg02947253": 4642,
      "cg05790999": 4643,
      "cg27202708": 4644,
      "cg07084746": 4645,
      "cg13515605": 4646,
      "cg16636110": 4647,
      "cg02547138": 4648,
      "cg02096633": 4649,
      "cg15743985": 4650,
      "cg25757737": 4651,
      "cg15662251": 4652,
      "cg00309204": 4653,
      "cg00463202": 4654,
      "cg12515371": 4655,
      "cg08434547": 4656,
      "cg15101633": 4657,
      "cg09327628": 4658,
      "cg03395898": 4659,
      "cg13945069": 4660,
      "cg24592364": 4661,
      "cg06434451": 4662,
      "cg04388983": 4663,
      "cg03217964": 4664,
      "cg06776256": 4665,
      "cg20757912": 4666,
      "cg09886641": 4667,
      "cg00893242": 4668,
      "cg22663117": 4669,
      "cg22727416": 4670,
      "cg05404787": 4671,
      "cg21208104": 4672,
      "cg23074747": 4673,
      "cg19569684": 4674,
      "cg17048363": 4675,
      "cg06710522": 4676,
      "cg27544190": 4677,
      "cg14267151": 4678,
      "cg23356993": 4679,
      "cg15746445": 4680,
      "cg07603484": 4681,
      "cg09829319": 4682,
      "cg11500797": 4683,
      "cg14201417": 4684,
      "cg18865999": 4685,
      "cg20774846": 4686,
      "cg08626653": 4687,
      "cg25153340": 4688,
      "cg16763895": 4689,
      "cg18389810": 4690,
      "cg02654291": 4691,
      "cg10534672": 4692,
      "cg25165199": 4693,
      "cg20822628": 4694,
      "cg23159296": 4695,
      "cg01035422": 4696,
      "cg04676561": 4697,
      "cg05945622": 4698,
      "cg15952487": 4699,
      "cg26521404": 4700,
      "cg21504918": 4701,
      "cg22730042": 4702,
      "cg24346637": 4703,
      "cg01522721": 4704,
      "cg01870826": 4705,
      "cg04155026": 4706,
      "cg18145505": 4707,
      "cg27194614": 4708,
      "cg11340260": 4709,
      "cg23130254": 4710,
      "cg08341924": 4711,
      "cg24235633": 4712,
      "cg18801806": 4713,
      "cg05421555": 4714,
      "cg03885639": 4715,
      "cg04718342": 4716,
      "cg03907454": 4717,
      "cg08785534": 4718,
      "cg25077654": 4719,
      "cg07971188": 4720,
      "cg00146096": 4721,
      "cg22825487": 4722,
      "cg23752985": 4723,
      "cg02915261": 4724,
      "cg26870566": 4725,
      "cg05942574": 4726,
      "cg09991975": 4727,
      "cg03811411": 4728,
      "cg24862483": 4729,
      "cg22359606": 4730,
      "cg27431247": 4731,
      "cg12150066": 4732,
      "cg24794433": 4733,
      "cg16124821": 4734,
      "cg09068993": 4735,
      "cg04413148": 4736,
      "cg00297584": 4737,
      "cg15925792": 4738,
      "cg03127334": 4739,
      "cg17030820": 4740,
      "cg14297876": 4741,
      "cg03243895": 4742,
      "cg14651992": 4743,
      "cg15856055": 4744,
      "cg10216105": 4745,
      "cg06855803": 4746,
      "cg24767315": 4747,
      "cg21660687": 4748,
      "cg04229238": 4749,
      "cg24109894": 4750,
      "cg23508540": 4751,
      "cg07253191": 4752,
      "cg14982472": 4753,
      "cg12729048": 4754,
      "cg13873733": 4755,
      "cg03534410": 4756,
      "cg01819863": 4757,
      "cg02071305": 4758,
      "cg22784047": 4759,
      "cg08128768": 4760,
      "cg14271400": 4761,
      "cg05844583": 4762,
      "cg27154163": 4763,
      "cg27132814": 4764,
      "cg18795395": 4765,
      "cg23652939": 4766,
      "cg23002761": 4767,
      "cg26790059": 4768,
      "cg25217765": 4769,
      "cg24851490": 4770,
      "cg01320361": 4771,
      "cg00941229": 4772,
      "cg19228118": 4773,
      "cg13980719": 4774,
      "cg18292394": 4775,
      "cg19210770": 4776,
      "cg04744379": 4777,
      "cg05697231": 4778,
      "cg19856444": 4779,
      "cg21363943": 4780,
      "cg12504957": 4781,
      "cg00394658": 4782,
      "cg07236943": 4783,
      "cg10740965": 4784,
      "cg27367952": 4785,
      "cg15989091": 4786,
      "cg13469311": 4787,
      "cg14696870": 4788,
      "cg22155248": 4789,
      "cg12228229": 4790,
      "cg18776056": 4791,
      "cg05604720": 4792,
      "cg25323711": 4793,
      "cg12645220": 4794,
      "cg11279021": 4795,
      "cg24169915": 4796,
      "cg20228512": 4797,
      "cg12194493": 4798,
      "cg25412453": 4799,
      "cg11877382": 4800,
      "cg07099407": 4801,
      "cg01369413": 4802,
      "cg14366598": 4803,
      "cg12819826": 4804,
      "cg20587394": 4805,
      "cg17903544": 4806,
      "cg24158546": 4807,
      "cg24141135": 4808,
      "cg19346193": 4809,
      "cg05028467": 4810,
      "cg03870261": 4811,
      "cg07478122": 4812,
      "cg08426384": 4813,
      "cg04431133": 4814,
      "cg26889990": 4815,
      "cg20908204": 4816,
      "cg05027081": 4817,
      "cg13344740": 4818,
      "cg05924583": 4819,
      "cg08507270": 4820,
      "cg26363196": 4821,
      "cg09890200": 4822,
      "cg01680823": 4823,
      "cg07799434": 4824,
      "cg01078434": 4825,
      "cg20821095": 4826,
      "cg20937139": 4827,
      "cg02582608": 4828,
      "cg21273098": 4829,
      "cg23509869": 4830,
      "cg03112433": 4831,
      "cg02774160": 4832,
      "cg19717150": 4833,
      "cg04086834": 4834,
      "cg22362636": 4835,
      "cg14896003": 4836,
      "cg07017706": 4837,
      "cg17386433": 4838,
      "cg05529097": 4839,
      "cg03297731": 4840,
      "cg23096644": 4841,
      "cg25505974": 4842,
      "cg15584813": 4843,
      "cg06796611": 4844,
      "cg20366831": 4845,
      "cg01295203": 4846,
      "cg14144305": 4847,
      "cg24399405": 4848,
      "cg10833576": 4849,
      "cg20451802": 4850,
      "cg17304878": 4851,
      "cg05927017": 4852,
      "cg22479947": 4853,
      "cg08536841": 4854,
      "cg25682559": 4855,
      "cg03759077": 4856,
      "cg12006284": 4857,
      "cg16253168": 4858,
      "cg11151820": 4859,
      "cg20312687": 4860,
      "cg14091223": 4861,
      "cg11847808": 4862,
      "cg07773642": 4863,
      "cg02962602": 4864,
      "cg07580475": 4865,
      "cg09495977": 4866,
      "cg21137823": 4867,
      "cg02584520": 4868,
      "cg03550002": 4869,
      "cg04894993": 4870,
      "cg16772514": 4871,
      "cg24792272": 4872,
      "cg05610379": 4873,
      "cg11934695": 4874,
      "cg19685976": 4875,
      "cg09155852": 4876,
      "cg12588301": 4877,
      "cg06216677": 4878,
      "cg11108432": 4879,
      "cg12024292": 4880,
      "cg19219920": 4881,
      "cg05473677": 4882,
      "cg14898892": 4883,
      "cg01626197": 4884,
      "cg02600430": 4885,
      "cg12783640": 4886,
      "cg21370143": 4887,
      "cg16348491": 4888,
      "cg01743370": 4889,
      "cg09423836": 4890,
      "cg26083396": 4891,
      "cg22524514": 4892,
      "cg09391966": 4893,
      "cg11393453": 4894,
      "cg24475171": 4895,
      "cg03026462": 4896,
      "cg20923575": 4897,
      "cg27550918": 4898,
      "cg16777839": 4899,
      "cg09998229": 4900,
      "cg26233253": 4901,
      "cg15062535": 4902,
      "cg18755783": 4903,
      "cg17703324": 4904,
      "cg04391540": 4905,
      "cg23352579": 4906,
      "cg21264055": 4907,
      "cg10525372": 4908,
      "cg01381846": 4909,
      "cg26568669": 4910,
      "cg19226099": 4911,
      "cg15157837": 4912,
      "cg11313997": 4913,
      "cg09606564": 4914,
      "cg21319745": 4915,
      "cg01344518": 4916,
      "cg24664861": 4917,
      "cg18330203": 4918,
      "cg22830590": 4919,
      "cg26781575": 4920,
      "cg26540515": 4921,
      "cg02932669": 4922,
      "cg24059075": 4923,
      "cg19435264": 4924,
      "cg00567479": 4925,
      "cg01078276": 4926,
      "cg20125091": 4927,
      "cg10957151": 4928,
      "cg08827391": 4929,
      "cg26267310": 4930,
      "cg09432376": 4931,
      "cg27418851": 4932,
      "cg19594666": 4933,
      "cg09744051": 4934,
      "cg24000189": 4935,
      "cg20801056": 4936,
      "cg25459323": 4937,
      "cg04748010": 4938,
      "cg00079056": 4939,
      "cg12116020": 4940,
      "cg03616357": 4941,
      "cg25982743": 4942,
      "cg12914657": 4943,
      "cg06394897": 4944,
      "cg09712606": 4945,
      "cg16438432": 4946,
      "cg20342105": 4947,
      "cg06940792": 4948,
      "cg16723180": 4949,
      "cg04330449": 4950,
      "cg03382564": 4951,
      "cg25023829": 4952,
      "cg04836428": 4953,
      "cg11617144": 4954,
      "cg23696886": 4955,
      "cg03532957": 4956,
      "cg12894126": 4957,
      "cg10896886": 4958,
      "cg27497900": 4959,
      "cg00343092": 4960,
      "cg16358738": 4961,
      "cg24798047": 4962,
      "cg06417225": 4963,
      "cg04057858": 4964,
      "cg14204735": 4965,
      "cg18674980": 4966,
      "cg02630122": 4967,
      "cg13265789": 4968,
      "cg26643856": 4969,
      "cg05159188": 4970,
      "cg01693350": 4971,
      "cg16937611": 4972,
      "cg13430425": 4973,
      "cg09119967": 4974,
      "cg10774440": 4975,
      "cg10784030": 4976,
      "cg24136586": 4977,
      "cg24265806": 4978,
      "cg11713029": 4979,
      "cg05241571": 4980,
      "cg16792800": 4981,
      "cg15305511": 4982,
      "cg21512370": 4983,
      "cg22573917": 4984,
      "cg21242004": 4985,
      "cg13191049": 4986,
      "cg00463577": 4987,
      "cg18317951": 4988,
      "cg24276491": 4989,
      "cg05406101": 4990,
      "cg24789424": 4991,
      "cg14401897": 4992,
      "cg08242020": 4993,
      "cg18263030": 4994,
      "cg14707431": 4995,
      "cg00643392": 4996,
      "cg01184449": 4997,
      "cg10515956": 4998,
      "cg03086857": 4999,
      "cg00678539": 5000,
      "cg10766289": 5001,
      "cg10919204": 5002,
      "cg14072120": 5003,
      "cg19118812": 5004,
      "cg13042487": 5005,
      "cg01481976": 5006,
      "cg07022477": 5007,
      "cg20870362": 5008,
      "cg27173322": 5009,
      "cg09499698": 5010,
      "cg24924779": 5011,
      "cg05365525": 5012,
      "cg21288099": 5013,
      "cg24956866": 5014,
      "cg01989224": 5015,
      "cg20573242": 5016,
      "cg19522294": 5017,
      "cg25799986": 5018,
      "cg01693108": 5019,
      "cg14153740": 5020,
      "cg07570142": 5021,
      "cg04663487": 5022,
      "cg19669439": 5023,
      "cg14034870": 5024,
      "cg03873930": 5025,
      "cg27504299": 5026,
      "cg25225073": 5027,
      "cg23355492": 5028,
      "cg01195053": 5029,
      "cg17016000": 5030,
      "cg18175410": 5031,
      "cg14297029": 5032,
      "cg19070899": 5033,
      "cg05911610": 5034,
      "cg08191854": 5035,
      "cg11620807": 5036,
      "cg13608094": 5037,
      "cg22587514": 5038,
      "cg03292149": 5039,
      "cg00355802": 5040,
      "cg13316424": 5041,
      "cg25167447": 5042,
      "cg24881834": 5043,
      "cg15034135": 5044,
      "cg11828669": 5045,
      "cg10979891": 5046,
      "cg12105450": 5047,
      "cg04757428": 5048,
      "cg01601573": 5049,
      "cg15658426": 5050,
      "cg04845579": 5051,
      "cg20507276": 5052,
      "cg17753124": 5053,
      "cg03386869": 5054,
      "cg10193817": 5055,
      "cg07747336": 5056,
      "cg18540871": 5057,
      "cg17391877": 5058,
      "cg14058998": 5059,
      "cg10253484": 5060,
      "cg08878744": 5061,
      "cg23906291": 5062,
      "cg09245378": 5063,
      "cg13269964": 5064,
      "cg15107670": 5065,
      "cg06675496": 5066,
      "cg18411891": 5067,
      "cg22197708": 5068,
      "cg25556101": 5069,
      "cg00806490": 5070,
      "cg27433088": 5071,
      "cg22244418": 5072,
      "cg22734085": 5073,
      "cg14027234": 5074,
      "cg25479216": 5075,
      "cg16257086": 5076,
      "cg21241823": 5077,
      "cg14662172": 5078,
      "cg16799961": 5079,
      "cg18804206": 5080,
      "cg06417962": 5081,
      "cg16092786": 5082,
      "cg27257408": 5083,
      "cg18383391": 5084,
      "cg05976074": 5085,
      "cg01262913": 5086,
      "cg27512828": 5087,
      "cg06817917": 5088,
      "cg10478221": 5089,
      "cg22980079": 5090,
      "cg15043057": 5091,
      "cg10189763": 5092,
      "cg19222480": 5093,
      "cg05350879": 5094,
      "cg13960126": 5095,
      "cg00650762": 5096,
      "cg11332950": 5097,
      "cg11790217": 5098,
      "cg15477600": 5099,
      "cg13603099": 5100,
      "cg06117855": 5101,
      "cg12333095": 5102,
      "cg18387216": 5103,
      "cg20060451": 5104,
      "cg22833292": 5105,
      "cg25861458": 5106,
      "cg19248557": 5107,
      "cg14784653": 5108,
      "cg07576541": 5109,
      "cg00014085": 5110,
      "cg06872331": 5111,
      "cg06452647": 5112,
      "cg01431114": 5113,
      "cg08413469": 5114,
      "cg02229946": 5115,
      "cg14275779": 5116,
      "cg24653181": 5117,
      "cg03992230": 5118,
      "cg01428361": 5119,
      "cg04316770": 5120,
      "cg21376883": 5121,
      "cg22541143": 5122,
      "cg04956511": 5123,
      "cg05352541": 5124,
      "cg14753432": 5125,
      "cg27462160": 5126,
      "cg01951308": 5127,
      "cg03755123": 5128,
      "cg25122941": 5129,
      "cg21335556": 5130,
      "cg20134215": 5131,
      "cg03887534": 5132,
      "cg19370284": 5133,
      "cg10520594": 5134,
      "cg08176694": 5135,
      "cg13302154": 5136,
      "cg24358465": 5137,
      "cg23324787": 5138,
      "cg11271605": 5139,
      "cg21615171": 5140,
      "cg25808839": 5141,
      "cg14874121": 5142,
      "cg15784332": 5143,
      "cg04008843": 5144,
      "cg03777405": 5145,
      "cg01946401": 5146,
      "cg10488637": 5147,
      "cg08687825": 5148,
      "cg03565081": 5149,
      "cg11084035": 5150,
      "cg25604883": 5151,
      "cg13271963": 5152,
      "cg02640558": 5153,
      "cg01044722": 5154,
      "cg07200280": 5155,
      "cg06590610": 5156,
      "cg03766998": 5157,
      "cg11595794": 5158,
      "cg26607785": 5159,
      "cg00427635": 5160,
      "cg08914623": 5161,
      "cg01657694": 5162,
      "cg00334507": 5163,
      "cg23653712": 5164,
      "cg22764338": 5165,
      "cg04534765": 5166,
      "cg04488521": 5167,
      "cg04640886": 5168,
      "cg26045434": 5169,
      "cg17733100": 5170,
      "cg05590982": 5171,
      "cg07408740": 5172,
      "cg24723331": 5173,
      "cg21481775": 5174,
      "cg27318318": 5175,
      "cg11917694": 5176,
      "cg13288195": 5177,
      "cg02583151": 5178,
      "cg26929490": 5179,
      "cg14893129": 5180,
      "cg21402035": 5181,
      "cg11027330": 5182,
      "cg25786436": 5183,
      "cg05508048": 5184,
      "cg14605021": 5185,
      "cg01200060": 5186,
      "cg04109220": 5187,
      "cg01351032": 5188,
      "cg24222435": 5189,
      "cg03894103": 5190,
      "cg24251035": 5191,
      "cg06557606": 5192,
      "cg10174687": 5193,
      "cg03115649": 5194,
      "cg24306924": 5195,
      "cg24594997": 5196,
      "cg24650353": 5197,
      "cg04915182": 5198,
      "cg02497700": 5199,
      "cg06252382": 5200,
      "cg26079320": 5201,
      "cg13928961": 5202,
      "cg15188688": 5203,
      "cg16237595": 5204,
      "cg07711097": 5205,
      "cg27504117": 5206,
      "cg04925864": 5207,
      "cg22111003": 5208,
      "cg26131911": 5209,
      "cg01331554": 5210,
      "cg13910855": 5211,
      "cg01497527": 5212,
      "cg27446185": 5213,
      "cg02537838": 5214,
      "cg06588247": 5215,
      "cg25993718": 5216,
      "cg01982597": 5217,
      "cg24252723": 5218,
      "cg05318777": 5219,
      "cg12657853": 5220,
      "cg16691616": 5221,
      "cg14724364": 5222,
      "cg10624445": 5223,
      "cg25753817": 5224,
      "cg01727899": 5225,
      "cg09580336": 5226,
      "cg06336792": 5227,
      "cg06059810": 5228,
      "cg02672220": 5229,
      "cg23230018": 5230,
      "cg13720744": 5231,
      "cg20330472": 5232,
      "cg15302379": 5233,
      "cg22606062": 5234,
      "cg01968178": 5235,
      "cg15913671": 5236,
      "cg06810461": 5237,
      "cg00483154": 5238,
      "cg03109701": 5239,
      "cg16245844": 5240,
      "cg25438054": 5241,
      "cg15059932": 5242,
      "cg14423778": 5243,
      "cg20858526": 5244,
      "cg04815626": 5245,
      "cg23166289": 5246,
      "cg09138627": 5247,
      "cg23316360": 5248,
      "cg00293409": 5249,
      "cg20305726": 5250,
      "cg25782563": 5251,
      "cg03805684": 5252,
      "cg10227731": 5253,
      "cg06030619": 5254,
      "cg25411725": 5255,
      "cg11214889": 5256,
      "cg00155609": 5257,
      "cg18437633": 5258,
      "cg20401181": 5259,
      "cg25428451": 5260,
      "cg10940099": 5261,
      "cg24117442": 5262,
      "cg00015770": 5263,
      "cg17420360": 5264,
      "cg22322184": 5265,
      "cg12339802": 5266,
      "cg26512148": 5267,
      "cg06880557": 5268,
      "cg16250754": 5269,
      "cg02556718": 5270,
      "cg11389172": 5271,
      "cg18755204": 5272,
      "cg07339138": 5273,
      "cg15765532": 5274,
      "cg22601917": 5275,
      "cg18787783": 5276,
      "cg06957329": 5277,
      "cg01138020": 5278,
      "cg10049968": 5279,
      "cg21140292": 5280,
      "cg10560038": 5281,
      "cg05010058": 5282,
      "cg16008138": 5283,
      "cg20899321": 5284,
      "cg06618866": 5285,
      "cg02620470": 5286,
      "cg20050113": 5287,
      "cg20279283": 5288,
      "cg14137939": 5289,
      "cg01146980": 5290,
      "cg23547429": 5291,
      "cg16091845": 5292,
      "cg24081819": 5293,
      "cg09649610": 5294,
      "cg15749858": 5295,
      "cg23704362": 5296,
      "cg27286999": 5297,
      "cg05568762": 5298,
      "cg25284492": 5299,
      "cg07020962": 5300,
      "cg18112005": 5301,
      "cg06501070": 5302,
      "cg00620629": 5303,
      "cg25784308": 5304,
      "cg25946389": 5305,
      "cg11185452": 5306,
      "cg24170535": 5307,
      "cg27160701": 5308,
      "cg02162412": 5309,
      "cg24101873": 5310,
      "cg17498321": 5311,
      "cg07236190": 5312,
      "cg16353413": 5313,
      "cg18055394": 5314,
      "cg16427670": 5315,
      "cg20865068": 5316,
      "cg14808739": 5317,
      "cg23495059": 5318,
      "cg17026456": 5319,
      "cg14338887": 5320,
      "cg18399703": 5321,
      "cg08319238": 5322,
      "cg09343544": 5323,
      "cg02164046": 5324,
      "cg18440048": 5325,
      "cg07846167": 5326,
      "cg14693893": 5327,
      "cg03536787": 5328,
      "cg14391855": 5329,
      "cg15536490": 5330,
      "cg23326197": 5331,
      "cg04007936": 5332,
      "cg10573763": 5333,
      "cg16872560": 5334,
      "cg02823866": 5335,
      "cg23152772": 5336,
      "cg14218343": 5337,
      "cg18201198": 5338,
      "cg08492707": 5339,
      "cg16312647": 5340,
      "cg25226247": 5341,
      "cg15563382": 5342,
      "cg16665103": 5343,
      "cg03530967": 5344,
      "cg21515744": 5345,
      "cg20557202": 5346,
      "cg21359747": 5347,
      "cg22247240": 5348,
      "cg03600318": 5349,
      "cg13795840": 5350,
      "cg00950621": 5351,
      "cg20972553": 5352,
      "cg15835825": 5353,
      "cg26320696": 5354,
      "cg02497758": 5355,
      "cg07056057": 5356,
      "cg08578305": 5357,
      "cg16332224": 5358,
      "cg16833551": 5359,
      "cg03608974": 5360,
      "cg14527802": 5361,
      "cg24346429": 5362,
      "cg24543400": 5363,
      "cg20301340": 5364,
      "cg25661884": 5365,
      "cg16544272": 5366,
      "cg16787600": 5367,
      "cg06543018": 5368,
      "cg21291985": 5369,
      "cg10972353": 5370,
      "cg20627916": 5371,
      "cg25336198": 5372,
      "cg06141025": 5373,
      "cg09546345": 5374,
      "cg21215336": 5375,
      "cg04856203": 5376,
      "cg13396068": 5377,
      "cg13825058": 5378,
      "cg11584690": 5379,
      "cg08817120": 5380,
      "cg24910675": 5381,
      "cg04232649": 5382,
      "cg05127380": 5383,
      "cg03625911": 5384,
      "cg14181459": 5385,
      "cg07427065": 5386,
      "cg03047098": 5387,
      "cg19796273": 5388,
      "cg24968336": 5389,
      "cg16949889": 5390,
      "cg02358804": 5391,
      "cg17145652": 5392,
      "cg04037228": 5393,
      "cg10396357": 5394,
      "cg03312532": 5395,
      "cg22125922": 5396,
      "cg13788062": 5397,
      "cg15095327": 5398,
      "cg02364038": 5399,
      "cg18410627": 5400,
      "cg02105034": 5401,
      "cg09535168": 5402,
      "cg18979819": 5403,
      "cg10318443": 5404,
      "cg14724265": 5405,
      "cg06290096": 5406,
      "cg15247144": 5407,
      "cg23618830": 5408,
      "cg15785580": 5409,
      "cg22442090": 5410,
      "cg07550278": 5411,
      "cg08790491": 5412,
      "cg15955341": 5413,
      "cg14336578": 5414,
      "cg09350141": 5415,
      "cg01120308": 5416,
      "cg02630694": 5417,
      "cg14823109": 5418,
      "cg09619786": 5419,
      "cg04432009": 5420,
      "cg23217005": 5421,
      "cg05968233": 5422,
      "cg25681177": 5423,
      "cg00043004": 5424,
      "cg21154823": 5425,
      "cg15374234": 5426,
      "cg04156850": 5427,
      "cg09879099": 5428,
      "cg11653500": 5429,
      "cg25485913": 5430,
      "cg05699592": 5431,
      "cg13846796": 5432,
      "cg19891733": 5433,
      "cg09096031": 5434,
      "cg20953047": 5435,
      "cg22634689": 5436,
      "cg12045002": 5437,
      "cg20163033": 5438,
      "cg09931793": 5439,
      "cg15089387": 5440,
      "cg07354440": 5441,
      "cg25778479": 5442,
      "cg07084161": 5443,
      "cg07265310": 5444,
      "cg20216130": 5445,
      "cg02505689": 5446,
      "cg24613957": 5447,
      "cg20340596": 5448,
      "cg10247268": 5449,
      "cg06834261": 5450,
      "cg03793778": 5451,
      "cg21660392": 5452,
      "cg24171152": 5453,
      "cg06791867": 5454,
      "cg11263584": 5455,
      "cg17918501": 5456,
      "cg09155905": 5457,
      "cg21611708": 5458,
      "cg21736592": 5459,
      "cg13462129": 5460,
      "cg13126790": 5461,
      "cg10148280": 5462,
      "cg11468462": 5463,
      "cg17257175": 5464,
      "cg07654934": 5465,
      "cg19103704": 5466,
      "cg14850181": 5467,
      "cg20227165": 5468,
      "cg24237576": 5469,
      "cg10976673": 5470,
      "cg07644368": 5471,
      "cg16005224": 5472,
      "cg26926521": 5473,
      "cg27164762": 5474,
      "cg27535305": 5475,
      "cg19591881": 5476,
      "cg11442717": 5477,
      "cg05365729": 5478,
      "cg27315279": 5479,
      "cg07165793": 5480,
      "cg00714377": 5481,
      "cg04367351": 5482,
      "cg02683985": 5483,
      "cg22183706": 5484,
      "cg08519905": 5485,
      "cg24329794": 5486,
      "cg07900766": 5487,
      "cg01929065": 5488,
      "cg20339650": 5489,
      "cg08537652": 5490,
      "cg07218192": 5491,
      "cg21365602": 5492,
      "cg07882831": 5493,
      "cg06491116": 5494,
      "cg19426277": 5495,
      "cg17706173": 5496,
      "cg27494383": 5497,
      "cg07774222": 5498,
      "cg09106817": 5499,
      "cg21022435": 5500,
      "cg18508125": 5501,
      "cg17889103": 5502,
      "cg16773028": 5503,
      "cg17795586": 5504,
      "cg12675800": 5505,
      "cg25475443": 5506,
      "cg07623294": 5507,
      "cg18110483": 5508,
      "cg12703269": 5509,
      "cg19524049": 5510,
      "cg25514503": 5511,
      "cg12893143": 5512,
      "cg23640092": 5513,
      "cg27560292": 5514,
      "cg03979162": 5515,
      "cg17819635": 5516,
      "cg21497439": 5517,
      "cg03114244": 5518,
      "cg22367264": 5519,
      "cg02702510": 5520,
      "cg19674669": 5521,
      "cg09258965": 5522,
      "cg06319579": 5523,
      "cg02832245": 5524,
      "cg10065130": 5525,
      "cg21166999": 5526,
      "cg13510363": 5527,
      "cg09044743": 5528,
      "cg24411312": 5529,
      "cg21047206": 5530,
      "cg08948050": 5531,
      "cg18070061": 5532,
      "cg18989919": 5533,
      "cg08132931": 5534,
      "cg02250594": 5535,
      "cg19734228": 5536,
      "cg01665633": 5537,
      "cg22506059": 5538,
      "cg18160978": 5539,
      "cg19944367": 5540,
      "cg12406417": 5541,
      "cg14175580": 5542,
      "cg18607470": 5543,
      "cg17820459": 5544,
      "cg03243506": 5545,
      "cg16377880": 5546,
      "cg04879696": 5547,
      "cg26385743": 5548,
      "cg06921282": 5549,
      "cg00775197": 5550,
      "cg04798158": 5551,
      "cg07378350": 5552,
      "cg17697457": 5553,
      "cg27316956": 5554,
      "cg05222924": 5555,
      "cg04711050": 5556,
      "cg13398291": 5557,
      "cg17109273": 5558,
      "cg23244913": 5559,
      "cg07550362": 5560,
      "cg15492003": 5561,
      "cg19979773": 5562,
      "cg13042288": 5563,
      "cg03440267": 5564,
      "cg26093148": 5565,
      "cg09947274": 5566,
      "cg02025407": 5567,
      "cg13258606": 5568,
      "cg08088390": 5569,
      "cg11893236": 5570,
      "cg09152089": 5571,
      "cg15673110": 5572,
      "cg21053529": 5573,
      "cg04710641": 5574,
      "cg23026920": 5575,
      "cg09085198": 5576,
      "cg26709720": 5577,
      "cg21787206": 5578,
      "cg07785936": 5579,
      "cg23159857": 5580,
      "cg03035419": 5581,
      "cg24091474": 5582,
      "cg08313788": 5583,
      "cg10962407": 5584,
      "cg23456306": 5585,
      "cg02870945": 5586,
      "cg17198722": 5587,
      "cg27398547": 5588,
      "cg14460735": 5589,
      "cg00554702": 5590,
      "cg25178645": 5591,
      "cg15561986": 5592,
      "cg14221831": 5593,
      "cg14645481": 5594,
      "cg20956373": 5595,
      "cg14056306": 5596,
      "cg23864823": 5597,
      "cg19911362": 5598,
      "cg06668073": 5599,
      "cg16907566": 5600,
      "cg08173535": 5601,
      "cg04689061": 5602,
      "cg10995380": 5603,
      "cg00007981": 5604,
      "cg17192247": 5605,
      "cg00303548": 5606,
      "cg04891836": 5607,
      "cg18047509": 5608,
      "cg12953249": 5609,
      "cg12264551": 5610,
      "cg02786019": 5611,
      "cg01305421": 5612,
      "cg17364922": 5613,
      "cg06063729": 5614,
      "cg12533010": 5615,
      "cg27648946": 5616,
      "cg06848073": 5617,
      "cg25484904": 5618,
      "cg25259754": 5619,
      "cg17251713": 5620,
      "cg14489884": 5621,
      "cg09891106": 5622,
      "cg19017177": 5623,
      "cg10670077": 5624,
      "cg25781123": 5625,
      "cg21792737": 5626,
      "cg25355803": 5627,
      "cg27076046": 5628,
      "cg22580353": 5629,
      "cg07509155": 5630,
      "cg11611600": 5631,
      "cg02376163": 5632,
      "cg25951582": 5633,
      "cg20622019": 5634,
      "cg20985014": 5635,
      "cg27193335": 5636,
      "cg12624641": 5637,
      "cg15554401": 5638,
      "cg02719634": 5639,
      "cg07149772": 5640,
      "cg21271753": 5641,
      "cg25229015": 5642,
      "cg24512303": 5643,
      "cg13843773": 5644,
      "cg11034861": 5645,
      "cg16409869": 5646,
      "cg04623837": 5647,
      "cg08801329": 5648,
      "cg02045085": 5649,
      "cg02252907": 5650,
      "cg07047653": 5651,
      "cg15760840": 5652,
      "cg05650565": 5653,
      "cg00435408": 5654,
      "cg04230869": 5655,
      "cg15756091": 5656,
      "cg00276797": 5657,
      "cg19985911": 5658,
      "cg22880820": 5659,
      "cg07059360": 5660,
      "cg05940536": 5661,
      "cg08803129": 5662,
      "cg07480567": 5663,
      "cg14634738": 5664,
      "cg24937706": 5665,
      "cg07361385": 5666,
      "cg05122605": 5667,
      "cg11656547": 5668,
      "cg16382256": 5669,
      "cg04145477": 5670,
      "cg00853068": 5671,
      "cg00210842": 5672,
      "cg22637507": 5673,
      "cg23512958": 5674,
      "cg16769376": 5675,
      "cg24194539": 5676,
      "cg01982455": 5677,
      "cg23641264": 5678,
      "cg24552431": 5679,
      "cg10274830": 5680,
      "cg11091262": 5681,
      "cg20345840": 5682,
      "cg20770175": 5683,
      "cg08383063": 5684,
      "cg20051033": 5685,
      "cg02978737": 5686,
      "cg03712708": 5687,
      "cg20449692": 5688,
      "cg10631471": 5689,
      "cg10661591": 5690,
      "cg22477592": 5691,
      "cg08419026": 5692,
      "cg13673779": 5693,
      "cg11532513": 5694,
      "cg19021732": 5695,
      "cg19669036": 5696,
      "cg00321478": 5697,
      "cg03521113": 5698,
      "cg26128441": 5699,
      "cg05780311": 5700,
      "cg21431091": 5701,
      "cg02022375": 5702,
      "cg17233506": 5703,
      "cg23110832": 5704,
      "cg18190433": 5705,
      "cg07611177": 5706,
      "cg11328149": 5707,
      "cg07326586": 5708,
      "cg20610181": 5709,
      "cg21022247": 5710,
      "cg25026013": 5711,
      "cg13682722": 5712,
      "cg20868410": 5713,
      "cg17639046": 5714,
      "cg08205655": 5715,
      "cg26147338": 5716,
      "cg19279529": 5717,
      "cg11462533": 5718,
      "cg18034329": 5719,
      "cg23886755": 5720,
      "cg07807817": 5721,
      "cg20695057": 5722,
      "cg19008649": 5723,
      "cg09616556": 5724,
      "cg20781967": 5725,
      "cg10164137": 5726,
      "cg09615786": 5727,
      "cg26493932": 5728,
      "cg23022999": 5729,
      "cg05723825": 5730,
      "cg16779976": 5731,
      "cg19939627": 5732,
      "cg15822411": 5733,
      "cg22377998": 5734,
      "cg06598256": 5735,
      "cg10764357": 5736,
      "cg08395899": 5737,
      "cg18661868": 5738,
      "cg06044900": 5739,
      "cg03586029": 5740,
      "cg04897683": 5741,
      "cg15646782": 5742,
      "cg08256781": 5743,
      "cg21478222": 5744,
      "cg25084878": 5745,
      "cg07935264": 5746,
      "cg15928446": 5747,
      "cg16382322": 5748,
      "cg06852652": 5749,
      "cg06197006": 5750,
      "cg23530850": 5751,
      "cg12781218": 5752,
      "cg22407574": 5753,
      "cg05970790": 5754,
      "cg16511708": 5755,
      "cg11324740": 5756,
      "cg03930970": 5757,
      "cg15679651": 5758,
      "cg26847093": 5759,
      "cg10645943": 5760,
      "cg24977709": 5761,
      "cg02431964": 5762,
      "cg13271951": 5763,
      "cg24573310": 5764,
      "cg12619162": 5765,
      "cg17361154": 5766,
      "cg05959392": 5767,
      "cg04413986": 5768,
      "cg22021786": 5769,
      "cg04471507": 5770,
      "cg20683151": 5771,
      "cg20088964": 5772,
      "cg23963136": 5773,
      "cg16220802": 5774,
      "cg00242839": 5775,
      "cg11688990": 5776,
      "cg03461495": 5777,
      "cg21480743": 5778,
      "cg02672493": 5779,
      "cg03014628": 5780,
      "cg17169998": 5781,
      "cg17127587": 5782,
      "cg06454226": 5783,
      "cg01558777": 5784,
      "cg02097420": 5785,
      "cg13842258": 5786,
      "cg17886028": 5787,
      "cg04863713": 5788,
      "cg07747970": 5789,
      "cg07352586": 5790,
      "cg25219134": 5791,
      "cg00631230": 5792,
      "cg02797569": 5793,
      "cg26570233": 5794,
      "cg25607161": 5795,
      "cg24903376": 5796,
      "cg23502772": 5797,
      "cg02756614": 5798,
      "cg24535573": 5799,
      "cg06518271": 5800,
      "cg14911395": 5801,
      "cg01343729": 5802,
      "cg15753381": 5803,
      "cg02691091": 5804,
      "cg12813922": 5805,
      "cg02599225": 5806,
      "cg00692549": 5807,
      "cg00901683": 5808,
      "cg05060602": 5809,
      "cg27550442": 5810,
      "cg05001145": 5811,
      "cg27144162": 5812,
      "cg03619472": 5813,
      "cg25811820": 5814,
      "cg10983208": 5815,
      "cg09834162": 5816,
      "cg04176254": 5817,
      "cg04794505": 5818,
      "cg24852661": 5819,
      "cg19310430": 5820,
      "cg03570976": 5821,
      "cg04884908": 5822,
      "cg00262415": 5823,
      "cg11909310": 5824,
      "cg09892390": 5825,
      "cg04340502": 5826,
      "cg22328890": 5827,
      "cg00090147": 5828,
      "cg07263984": 5829,
      "cg13517305": 5830,
      "cg26209058": 5831,
      "cg07672479": 5832,
      "cg14047656": 5833,
      "cg01598642": 5834,
      "cg05722918": 5835,
      "cg16625216": 5836,
      "cg09096950": 5837,
      "cg23054883": 5838,
      "cg09299381": 5839,
      "cg09712066": 5840,
      "cg08901867": 5841,
      "cg09944147": 5842,
      "cg23807646": 5843,
      "cg24970539": 5844,
      "cg13759328": 5845,
      "cg24079455": 5846,
      "cg19714749": 5847,
      "cg25620220": 5848,
      "cg04172043": 5849,
      "cg19220825": 5850,
      "cg24334790": 5851,
      "cg12324144": 5852,
      "cg18750960": 5853,
      "cg22495162": 5854,
      "cg12044889": 5855,
      "cg02631622": 5856,
      "cg10217445": 5857,
      "cg05961212": 5858,
      "cg17582777": 5859,
      "cg03954858": 5860,
      "cg24974130": 5861,
      "cg04796162": 5862,
      "cg01465641": 5863,
      "cg00729275": 5864,
      "cg21638219": 5865,
      "cg19420968": 5866,
      "cg10063179": 5867,
      "cg04457979": 5868,
      "cg10219037": 5869,
      "cg08896629": 5870,
      "cg21052164": 5871,
      "cg13108328": 5872,
      "cg02860543": 5873,
      "cg01119135": 5874,
      "cg08744769": 5875,
      "cg16863382": 5876,
      "cg17731261": 5877,
      "cg15966253": 5878,
      "cg00904574": 5879,
      "cg20375690": 5880,
      "cg20807545": 5881,
      "cg16986494": 5882,
      "cg26647453": 5883,
      "cg05739825": 5884,
      "cg08784110": 5885,
      "cg19403023": 5886,
      "cg04794887": 5887,
      "cg25563456": 5888,
      "cg18403361": 5889,
      "cg07837262": 5890,
      "cg16794682": 5891,
      "cg02983451": 5892,
      "cg26107778": 5893,
      "cg09033997": 5894,
      "cg23282559": 5895,
      "cg12034229": 5896,
      "cg03055492": 5897,
      "cg00461841": 5898,
      "cg14292823": 5899,
      "cg11754676": 5900,
      "cg17129141": 5901,
      "cg21358381": 5902,
      "cg05450995": 5903,
      "cg15774495": 5904,
      "cg21803680": 5905,
      "cg14614901": 5906,
      "cg03221676": 5907,
      "cg10487127": 5908,
      "cg22575540": 5909,
      "cg27176536": 5910,
      "cg16293656": 5911,
      "cg11981599": 5912,
      "cg06765434": 5913,
      "cg24502084": 5914,
      "cg13519373": 5915,
      "cg27005053": 5916,
      "cg07638935": 5917,
      "cg19595170": 5918,
      "cg22994720": 5919,
      "cg22815214": 5920,
      "cg18469326": 5921,
      "cg15271616": 5922,
      "cg14254419": 5923,
      "cg24169822": 5924,
      "cg26608032": 5925,
      "cg06385087": 5926,
      "cg01124961": 5927,
      "cg09478478": 5928,
      "cg15796819": 5929,
      "cg20189782": 5930,
      "cg21567332": 5931,
      "cg20630567": 5932,
      "cg05358291": 5933,
      "cg15195353": 5934,
      "cg04780629": 5935,
      "cg14602658": 5936,
      "cg25803423": 5937,
      "cg09872934": 5938,
      "cg22009923": 5939,
      "cg13571802": 5940,
      "cg14264994": 5941,
      "cg09697795": 5942,
      "cg19506903": 5943,
      "cg15050111": 5944,
      "cg21034676": 5945,
      "cg23118151": 5946,
      "cg10648908": 5947,
      "cg16200844": 5948,
      "cg12038710": 5949,
      "cg09657538": 5950,
      "cg19622360": 5951,
      "cg05641961": 5952,
      "cg17669700": 5953,
      "cg00626119": 5954,
      "cg07028533": 5955,
      "cg01461641": 5956,
      "cg05194726": 5957,
      "cg10792326": 5958,
      "cg02836529": 5959,
      "cg26928682": 5960,
      "cg19601328": 5961,
      "cg14463304": 5962,
      "cg20966551": 5963,
      "cg01447498": 5964,
      "cg20691580": 5965,
      "cg14916079": 5966,
      "cg01593886": 5967,
      "cg26548883": 5968,
      "cg20425130": 5969,
      "cg27305895": 5970,
      "cg06793062": 5971,
      "cg09587549": 5972,
      "cg18581221": 5973,
      "cg06653796": 5974,
      "cg16581199": 5975,
      "cg03473294": 5976,
      "cg01418124": 5977,
      "cg04456238": 5978,
      "cg16009558": 5979,
      "cg19706682": 5980,
      "cg05523085": 5981,
      "cg12180123": 5982,
      "cg06279414": 5983,
      "cg00616129": 5984,
      "cg13176979": 5985,
      "cg15446391": 5986,
      "cg05208878": 5987,
      "cg08494812": 5988,
      "cg06679221": 5989,
      "cg02125271": 5990,
      "cg12413566": 5991,
      "cg02178898": 5992,
      "cg04765277": 5993,
      "cg06540636": 5994,
      "cg18753695": 5995,
      "cg21111868": 5996,
      "cg08418332": 5997,
      "cg21890738": 5998,
      "cg18006568": 5999,
      "cg01733599": 6000,
      "cg02903525": 6001,
      "cg16239406": 6002,
      "cg17055959": 6003,
      "cg13435381": 6004,
      "cg18732541": 6005,
      "cg18114671": 6006,
      "cg21770617": 6007,
      "cg01782487": 6008,
      "cg27365426": 6009,
      "cg25494227": 6010,
      "cg11835197": 6011,
      "cg16638540": 6012,
      "cg07612655": 6013,
      "cg10364182": 6014,
      "cg10432620": 6015,
      "cg10894102": 6016,
      "cg08002996": 6017,
      "cg10353870": 6018,
      "cg15556558": 6019,
      "cg25194415": 6020,
      "cg05113558": 6021,
      "cg12717203": 6022,
      "cg12127282": 6023,
      "cg06577005": 6024,
      "cg11093356": 6025,
      "cg04467034": 6026,
      "cg22844623": 6027,
      "cg22814247": 6028,
      "cg00839584": 6029,
      "cg23216184": 6030,
      "cg08453096": 6031,
      "cg11172423": 6032,
      "cg05226008": 6033,
      "cg03522910": 6034,
      "cg25477181": 6035,
      "cg03875678": 6036,
      "cg14698961": 6037,
      "cg05203877": 6038,
      "cg22385764": 6039,
      "cg11177450": 6040,
      "cg02790471": 6041,
      "cg24691255": 6042,
      "cg00136105": 6043,
      "cg26640549": 6044,
      "cg08304608": 6045,
      "cg23004625": 6046,
      "cg07651857": 6047,
      "cg00295206": 6048,
      "cg11086066": 6049,
      "cg11316784": 6050,
      "cg04984200": 6051,
      "cg11738543": 6052,
      "cg04128563": 6053,
      "cg16842214": 6054,
      "cg27207041": 6055,
      "cg12716838": 6056,
      "cg18601426": 6057,
      "cg16564824": 6058,
      "cg13993218": 6059,
      "cg07195577": 6060,
      "cg02784874": 6061,
      "cg11276280": 6062,
      "cg03278643": 6063,
      "cg03491478": 6064,
      "cg26829131": 6065,
      "cg22874560": 6066,
      "cg12374431": 6067,
      "cg16822189": 6068,
      "cg27016990": 6069,
      "cg22424444": 6070,
      "cg21377793": 6071,
      "cg18419020": 6072,
      "cg18838701": 6073,
      "cg07006042": 6074,
      "cg02848777": 6075,
      "cg14791831": 6076,
      "cg08998501": 6077,
      "cg07557424": 6078,
      "cg08040428": 6079,
      "cg04721098": 6080,
      "cg11609344": 6081,
      "cg05385377": 6082,
      "cg08949296": 6083,
      "cg08974656": 6084,
      "cg15820955": 6085,
      "cg08799191": 6086,
      "cg15018760": 6087,
      "cg24088229": 6088,
      "cg19455368": 6089,
      "cg14894216": 6090,
      "cg27493997": 6091,
      "cg01992081": 6092,
      "cg06213287": 6093,
      "cg14455307": 6094,
      "cg09215553": 6095,
      "cg16739396": 6096,
      "cg14258236": 6097,
      "cg17685628": 6098,
      "cg06015218": 6099,
      "cg21722680": 6100,
      "cg24438655": 6101,
      "cg11550426": 6102,
      "cg07027685": 6103,
      "cg10966500": 6104,
      "cg04828792": 6105,
      "cg11319389": 6106,
      "cg08110559": 6107,
      "cg17501569": 6108,
      "cg07051140": 6109,
      "cg02226939": 6110,
      "cg07549194": 6111,
      "cg21196187": 6112,
      "cg23020402": 6113,
      "cg19601035": 6114,
      "cg12335708": 6115,
      "cg07601320": 6116,
      "cg10412312": 6117,
      "cg21409833": 6118,
      "cg03475172": 6119,
      "cg12041387": 6120,
      "cg24859228": 6121,
      "cg10074513": 6122,
      "cg24126851": 6123,
      "cg02357725": 6124,
      "cg27626318": 6125,
      "cg17155596": 6126,
      "cg18986273": 6127,
      "cg02516189": 6128,
      "cg01566170": 6129,
      "cg21705120": 6130,
      "cg11438755": 6131,
      "cg10910525": 6132,
      "cg10218959": 6133,
      "cg18776764": 6134,
      "cg00024812": 6135,
      "cg27592318": 6136,
      "cg00177698": 6137,
      "cg18665023": 6138,
      "cg23326785": 6139,
      "cg24849648": 6140,
      "cg16454349": 6141,
      "cg09194436": 6142,
      "cg19566405": 6143,
      "cg15720535": 6144,
      "cg14585160": 6145,
      "cg23645091": 6146,
      "cg08355340": 6147,
      "cg00906183": 6148,
      "cg26062856": 6149,
      "cg15464148": 6150,
      "cg08718071": 6151,
      "cg03886898": 6152,
      "cg13728650": 6153,
      "cg02569333": 6154,
      "cg17709466": 6155,
      "cg15109571": 6156,
      "cg26021103": 6157,
      "cg00103783": 6158,
      "cg19703628": 6159,
      "cg20427879": 6160,
      "cg05139924": 6161,
      "cg12958778": 6162,
      "cg01651593": 6163,
      "cg17269277": 6164,
      "cg25905812": 6165,
      "cg13840968": 6166,
      "cg11800672": 6167,
      "cg11649654": 6168,
      "cg09060914": 6169,
      "cg08400019": 6170,
      "cg10275770": 6171,
      "cg05861661": 6172,
      "cg13436799": 6173,
      "cg13412615": 6174,
      "cg26391080": 6175,
      "cg14119774": 6176,
      "cg23309825": 6177,
      "cg06084557": 6178,
      "cg11250247": 6179,
      "cg09291628": 6180,
      "cg20498685": 6181,
      "cg19717326": 6182,
      "cg07930578": 6183,
      "cg23325242": 6184,
      "cg04106190": 6185,
      "cg17142149": 6186,
      "cg15914863": 6187,
      "cg16732901": 6188,
      "cg14643520": 6189,
      "cg10370591": 6190,
      "cg21387302": 6191,
      "cg19957727": 6192,
      "cg21609430": 6193,
      "cg21796234": 6194,
      "cg12542281": 6195,
      "cg10959933": 6196,
      "cg00333528": 6197,
      "cg01909833": 6198,
      "cg01543654": 6199,
      "cg09424896": 6200,
      "cg08792314": 6201,
      "cg01169624": 6202,
      "cg06018072": 6203,
      "cg11378686": 6204,
      "cg23154002": 6205,
      "cg22983529": 6206,
      "cg11703011": 6207,
      "cg11905589": 6208,
      "cg14840416": 6209,
      "cg02945646": 6210,
      "cg10990993": 6211,
      "cg26934034": 6212,
      "cg03640568": 6213,
      "cg12288726": 6214,
      "cg00916199": 6215,
      "cg12577610": 6216,
      "cg16267491": 6217,
      "cg21171130": 6218,
      "cg00587613": 6219,
      "cg24494008": 6220,
      "cg06229674": 6221,
      "cg13563405": 6222,
      "cg27293353": 6223,
      "cg20287234": 6224,
      "cg01848594": 6225,
      "cg12711814": 6226,
      "cg08397758": 6227,
      "cg16907514": 6228,
      "cg08987989": 6229,
      "cg06422910": 6230,
      "cg00495415": 6231,
      "cg02994974": 6232,
      "cg05934874": 6233,
      "cg26586164": 6234,
      "cg11422541": 6235,
      "cg01346589": 6236,
      "cg12265829": 6237,
      "cg23639989": 6238,
      "cg06269753": 6239,
      "cg19049316": 6240,
      "cg14049461": 6241,
      "cg27477594": 6242,
      "cg08876932": 6243,
      "cg06504820": 6244,
      "cg25268451": 6245,
      "cg06804431": 6246,
      "cg13053608": 6247,
      "cg02512860": 6248,
      "cg00067471": 6249,
      "cg19423196": 6250,
      "cg16705481": 6251,
      "cg19881177": 6252,
      "cg03688818": 6253,
      "cg20790056": 6254,
      "cg01110846": 6255,
      "cg20541456": 6256,
      "cg12227762": 6257,
      "cg07685869": 6258,
      "cg01846065": 6259,
      "cg10791260": 6260,
      "cg03684977": 6261,
      "cg12322132": 6262,
      "cg25216696": 6263,
      "cg10823926": 6264,
      "cg18247638": 6265,
      "cg25011395": 6266,
      "cg18342279": 6267,
      "cg13540795": 6268,
      "cg25302370": 6269,
      "cg04209631": 6270,
      "cg14338062": 6271,
      "cg11177955": 6272,
      "cg17213552": 6273,
      "cg17810944": 6274,
      "cg15877314": 6275,
      "cg16731016": 6276,
      "cg14370448": 6277,
      "cg04662451": 6278,
      "cg09978128": 6279,
      "cg06933965": 6280,
      "cg25741452": 6281,
      "cg13409216": 6282,
      "cg00405070": 6283,
      "cg25593040": 6284,
      "cg16657615": 6285,
      "cg14086647": 6286,
      "cg17989572": 6287,
      "cg11192270": 6288,
      "cg06118312": 6289,
      "cg10850580": 6290,
      "cg04482110": 6291,
      "cg09871315": 6292,
      "cg21144270": 6293,
      "cg07175007": 6294,
      "cg20950011": 6295,
      "cg10035922": 6296,
      "cg00061059": 6297,
      "cg20523861": 6298,
      "cg06073471": 6299,
      "cg06738602": 6300,
      "cg26912636": 6301,
      "cg07657776": 6302,
      "cg13818573": 6303,
      "cg13501507": 6304,
      "cg24473633": 6305,
      "cg26721993": 6306,
      "cg19635810": 6307,
      "cg06090864": 6308,
      "cg17176395": 6309,
      "cg11142466": 6310,
      "cg23533073": 6311,
      "cg16107172": 6312,
      "cg24331162": 6313,
      "cg11189434": 6314,
      "cg08633154": 6315,
      "cg26637069": 6316,
      "cg05843340": 6317,
      "cg09845946": 6318,
      "cg03251857": 6319,
      "cg09879797": 6320,
      "cg15869642": 6321,
      "cg14008119": 6322,
      "cg23481748": 6323,
      "cg23256150": 6324,
      "cg23127998": 6325,
      "cg04415689": 6326,
      "cg23207616": 6327,
      "cg23632840": 6328,
      "cg08278554": 6329,
      "cg15611923": 6330,
      "cg20314660": 6331,
      "cg16899442": 6332,
      "cg02909042": 6333,
      "cg04117338": 6334,
      "cg03909500": 6335,
      "cg19109050": 6336,
      "cg08508325": 6337,
      "cg19339848": 6338,
      "cg20468883": 6339,
      "cg16910379": 6340,
      "cg26163537": 6341,
      "cg21784940": 6342,
      "cg01820777": 6343,
      "cg18604842": 6344,
      "cg24986572": 6345,
      "cg05444024": 6346,
      "cg22670349": 6347,
      "cg05219900": 6348,
      "cg16539981": 6349,
      "cg12441964": 6350,
      "cg04057053": 6351,
      "cg02169446": 6352,
      "cg20047732": 6353,
      "cg00827369": 6354,
      "cg22957381": 6355,
      "cg07977490": 6356,
      "cg07364638": 6357,
      "cg21770145": 6358,
      "cg26677448": 6359,
      "cg01333011": 6360,
      "cg14217102": 6361,
      "cg23702568": 6362,
      "cg17489752": 6363,
      "cg23087130": 6364,
      "cg09313439": 6365,
      "cg04720330": 6366,
      "cg13222081": 6367,
      "cg09459044": 6368,
      "cg08247612": 6369,
      "cg13493559": 6370,
      "cg00247489": 6371,
      "cg18414381": 6372,
      "cg05065037": 6373,
      "cg13274713": 6374,
      "cg03048535": 6375,
      "cg23663332": 6376,
      "cg24896109": 6377,
      "cg19728223": 6378,
      "cg24435704": 6379,
      "cg03557733": 6380,
      "cg07035740": 6381,
      "cg19881895": 6382,
      "cg21685565": 6383,
      "cg02437376": 6384,
      "cg13633560": 6385,
      "cg18604888": 6386,
      "cg09675889": 6387,
      "cg26545162": 6388,
      "cg09901733": 6389,
      "cg20782689": 6390,
      "cg19863003": 6391,
      "cg10698222": 6392,
      "cg23408913": 6393,
      "cg13391638": 6394,
      "cg15408407": 6395,
      "cg16188243": 6396,
      "cg15703690": 6397,
      "cg03118854": 6398,
      "cg00209951": 6399,
      "cg00338893": 6400,
      "cg18313110": 6401,
      "cg01724150": 6402,
      "cg02740128": 6403,
      "cg04062391": 6404,
      "cg20654468": 6405,
      "cg25892434": 6406,
      "cg14526843": 6407,
      "cg27575501": 6408,
      "cg00158308": 6409,
      "cg03245962": 6410,
      "cg23414387": 6411,
      "cg04099673": 6412,
      "cg14100578": 6413,
      "cg01940867": 6414,
      "cg07195622": 6415,
      "cg26449836": 6416,
      "cg08935003": 6417,
      "cg22181664": 6418,
      "cg18353563": 6419,
      "cg04197051": 6420,
      "cg03622431": 6421,
      "cg10523671": 6422,
      "cg21171373": 6423,
      "cg22373112": 6424,
      "cg03278960": 6425,
      "cg04280397": 6426,
      "cg23941599": 6427,
      "cg22919728": 6428,
      "cg23262918": 6429,
      "cg00136477": 6430,
      "cg17017278": 6431,
      "cg01471384": 6432,
      "cg21305265": 6433,
      "cg25095380": 6434,
      "cg15500658": 6435,
      "cg19921776": 6436,
      "cg08586737": 6437,
      "cg06554542": 6438,
      "cg15755406": 6439,
      "cg14858551": 6440,
      "cg27281093": 6441,
      "cg16823105": 6442,
      "cg16463460": 6443,
      "cg27489994": 6444,
      "cg14174099": 6445,
      "cg19363546": 6446,
      "cg15880738": 6447,
      "cg04706338": 6448,
      "cg25014318": 6449,
      "cg24482053": 6450,
      "cg26601286": 6451,
      "cg00655307": 6452,
      "cg22151768": 6453,
      "cg12059012": 6454,
      "cg19771482": 6455,
      "cg12531542": 6456,
      "cg16860587": 6457,
      "cg23333306": 6458,
      "cg14663065": 6459,
      "cg11007123": 6460,
      "cg22630748": 6461,
      "cg10108208": 6462,
      "cg17496921": 6463,
      "cg07962315": 6464,
      "cg00512279": 6465,
      "cg14101501": 6466,
      "cg04979725": 6467,
      "cg07526021": 6468,
      "cg02194211": 6469,
      "cg04586023": 6470,
      "cg14093125": 6471,
      "cg05983247": 6472,
      "cg24165760": 6473,
      "cg10281002": 6474,
      "cg03027037": 6475,
      "cg03609102": 6476,
      "cg06092815": 6477,
      "cg19903229": 6478,
      "cg21197871": 6479,
      "cg18191162": 6480,
      "cg03658471": 6481,
      "cg06908778": 6482,
      "cg22153481": 6483,
      "cg21872129": 6484,
      "cg12873941": 6485,
      "cg15415509": 6486,
      "cg10823546": 6487,
      "cg26413355": 6488,
      "cg17366294": 6489,
      "cg08413366": 6490,
      "cg17647744": 6491,
      "cg00819362": 6492,
      "cg22719586": 6493,
      "cg16119274": 6494,
      "cg25716740": 6495,
      "cg09260830": 6496,
      "cg11618577": 6497,
      "cg12966875": 6498,
      "cg08307963": 6499,
      "cg24016044": 6500,
      "cg06214007": 6501,
      "cg25041148": 6502,
      "cg10346242": 6503,
      "cg06161738": 6504,
      "cg15739944": 6505,
      "cg09822001": 6506,
      "cg08205865": 6507,
      "cg07884474": 6508,
      "cg22621736": 6509,
      "cg09326702": 6510,
      "cg16482226": 6511,
      "cg12674192": 6512,
      "cg07732037": 6513,
      "cg18824775": 6514,
      "cg27158867": 6515,
      "cg10025865": 6516,
      "cg10302026": 6517,
      "cg00297600": 6518,
      "cg13272327": 6519,
      "cg12563178": 6520,
      "cg01245595": 6521,
      "cg01322897": 6522,
      "cg26852159": 6523,
      "cg08351143": 6524,
      "cg26661257": 6525,
      "cg21203420": 6526,
      "cg21925493": 6527,
      "cg15786879": 6528,
      "cg06567423": 6529,
      "cg05200628": 6530,
      "cg15798455": 6531,
      "cg00250430": 6532,
      "cg21319693": 6533,
      "cg09329496": 6534,
      "cg22392666": 6535,
      "cg18943383": 6536,
      "cg26656135": 6537,
      "cg16065186": 6538,
      "cg23109191": 6539,
      "cg27068170": 6540,
      "cg08211091": 6541,
      "cg17778120": 6542,
      "cg18497960": 6543,
      "cg06672652": 6544,
      "cg27155653": 6545,
      "cg21539243": 6546,
      "cg12220493": 6547,
      "cg06646021": 6548,
      "cg24082826": 6549,
      "cg03347966": 6550,
      "cg10294797": 6551,
      "cg20727114": 6552,
      "cg23137807": 6553,
      "cg26221631": 6554,
      "cg16381688": 6555,
      "cg10361696": 6556,
      "cg05263682": 6557,
      "cg11220060": 6558,
      "cg21944757": 6559,
      "cg08635242": 6560,
      "cg27372468": 6561,
      "cg18427589": 6562,
      "cg00598858": 6563,
      "cg05663262": 6564,
      "cg25430696": 6565,
      "cg26168249": 6566,
      "cg23588893": 6567,
      "cg06501790": 6568,
      "cg26336277": 6569,
      "cg16003238": 6570,
      "cg01657380": 6571,
      "cg11784785": 6572,
      "cg12271587": 6573,
      "cg04702490": 6574,
      "cg09794131": 6575,
      "cg26112353": 6576,
      "cg24342628": 6577,
      "cg08719081": 6578,
      "cg03900284": 6579,
      "cg06619076": 6580,
      "cg13067215": 6581,
      "cg03213216": 6582,
      "cg21545849": 6583,
      "cg09102714": 6584,
      "cg22215520": 6585,
      "cg10482024": 6586,
      "cg12026394": 6587,
      "cg17606881": 6588,
      "cg17701886": 6589,
      "cg09628601": 6590,
      "cg26282150": 6591,
      "cg05879919": 6592,
      "cg11053574": 6593,
      "cg24355048": 6594,
      "cg19297232": 6595,
      "cg24911803": 6596,
      "cg16391792": 6597,
      "cg07746918": 6598,
      "cg25945961": 6599,
      "cg05500015": 6600,
      "cg05457411": 6601,
      "cg08077673": 6602,
      "cg11356290": 6603,
      "cg09632416": 6604,
      "cg01357263": 6605,
      "cg24735489": 6606,
      "cg20470275": 6607,
      "cg01177956": 6608,
      "cg24812523": 6609,
      "cg04444771": 6610,
      "cg19063397": 6611,
      "cg25587233": 6612,
      "cg05221167": 6613,
      "cg11158440": 6614,
      "cg14138171": 6615,
      "cg21832150": 6616,
      "cg25395108": 6617,
      "cg23776217": 6618,
      "cg04576855": 6619,
      "cg05764376": 6620,
      "cg03740216": 6621,
      "cg13599477": 6622,
      "cg02888247": 6623,
      "cg01491225": 6624,
      "cg10158711": 6625,
      "cg12592463": 6626,
      "cg06779945": 6627,
      "cg21245135": 6628,
      "cg13982661": 6629,
      "cg04718306": 6630,
      "cg23686014": 6631,
      "cg19791277": 6632,
      "cg01765641": 6633,
      "cg10337819": 6634,
      "cg01154775": 6635,
      "cg07038887": 6636,
      "cg06649520": 6637,
      "cg26187237": 6638,
      "cg06614002": 6639,
      "cg00089071": 6640,
      "cg12382902": 6641,
      "cg02494117": 6642,
      "cg19896198": 6643,
      "cg14115004": 6644,
      "cg10148841": 6645,
      "cg23528708": 6646,
      "cg25650110": 6647,
      "cg05331214": 6648,
      "cg13332130": 6649,
      "cg11820497": 6650,
      "cg04014889": 6651,
      "cg16222698": 6652,
      "cg25432323": 6653,
      "cg15207619": 6654,
      "cg14116122": 6655,
      "cg26770882": 6656,
      "cg25635500": 6657,
      "cg00646492": 6658,
      "cg23641267": 6659,
      "cg01830294": 6660,
      "cg26826852": 6661,
      "cg18589858": 6662,
      "cg15085805": 6663,
      "cg08722122": 6664,
      "cg13912117": 6665,
      "cg20116574": 6666,
      "cg09447105": 6667,
      "cg15984661": 6668,
      "cg02946754": 6669,
      "cg10644361": 6670,
      "cg21673646": 6671,
      "cg16119128": 6672,
      "cg02656594": 6673,
      "cg03328750": 6674,
      "cg00940278": 6675,
      "cg04749104": 6676,
      "cg04683240": 6677,
      "cg04455064": 6678,
      "cg15396310": 6679,
      "cg04001333": 6680,
      "cg18393014": 6681,
      "cg01413314": 6682,
      "cg09260089": 6683,
      "cg26229274": 6684,
      "cg18340214": 6685,
      "cg05774801": 6686,
      "cg18438777": 6687,
      "cg19704039": 6688,
      "cg21542094": 6689,
      "cg22193702": 6690,
      "cg07753583": 6691,
      "cg22369818": 6692,
      "cg12019109": 6693,
      "cg13650137": 6694,
      "cg18462653": 6695,
      "cg12422968": 6696,
      "cg27152280": 6697,
      "cg07084709": 6698,
      "cg12802819": 6699,
      "cg21684385": 6700,
      "cg21604042": 6701,
      "cg24687764": 6702,
      "cg19290962": 6703,
      "cg26475085": 6704,
      "cg17233601": 6705,
      "cg12885244": 6706,
      "cg14114267": 6707,
      "cg25853020": 6708,
      "cg13707560": 6709,
      "cg00623593": 6710,
      "cg06552037": 6711,
      "cg10164686": 6712,
      "cg09892203": 6713,
      "cg23731764": 6714,
      "cg06148175": 6715,
      "cg19241744": 6716,
      "cg05778847": 6717,
      "cg21970438": 6718,
      "cg01333619": 6719,
      "cg21206959": 6720,
      "cg19928450": 6721,
      "cg00708598": 6722,
      "cg07447922": 6723,
      "cg12880658": 6724,
      "cg17935677": 6725,
      "cg26743024": 6726,
      "cg26798786": 6727,
      "cg23881601": 6728,
      "cg16614500": 6729,
      "cg03773789": 6730,
      "cg10604703": 6731,
      "cg11665588": 6732,
      "cg07676849": 6733,
      "cg15154229": 6734,
      "cg05761032": 6735,
      "cg11373746": 6736,
      "cg14509125": 6737,
      "cg08185241": 6738,
      "cg00466492": 6739,
      "cg04051458": 6740,
      "cg06111305": 6741,
      "cg05837075": 6742,
      "cg19817399": 6743,
      "cg20485165": 6744,
      "cg11944393": 6745,
      "cg23558650": 6746,
      "cg22189019": 6747,
      "cg00783759": 6748,
      "cg06993413": 6749,
      "cg15275890": 6750,
      "cg20702327": 6751,
      "cg11237883": 6752,
      "cg09893305": 6753,
      "cg08965235": 6754,
      "cg12683641": 6755,
      "cg26668713": 6756,
      "cg11692477": 6757,
      "cg06539449": 6758,
      "cg10083236": 6759,
      "cg21550483": 6760,
      "cg09676390": 6761,
      "cg08847038": 6762,
      "cg25411534": 6763,
      "cg09242772": 6764,
      "cg10187559": 6765,
      "cg11653266": 6766,
      "cg20570279": 6767,
      "cg25417405": 6768,
      "cg08462292": 6769,
      "cg00960702": 6770,
      "cg17778867": 6771,
      "cg00432979": 6772,
      "cg26872475": 6773,
      "cg01309153": 6774,
      "cg20910436": 6775,
      "cg16992787": 6776,
      "cg16310717": 6777,
      "cg21944455": 6778,
      "cg17457560": 6779,
      "cg04380513": 6780,
      "cg27279652": 6781,
      "cg27286107": 6782,
      "cg06948294": 6783,
      "cg07965714": 6784,
      "cg24886748": 6785,
      "cg05343453": 6786,
      "cg14094063": 6787,
      "cg16377872": 6788,
      "cg26427308": 6789,
      "cg27091233": 6790,
      "cg17979628": 6791,
      "cg18633178": 6792,
      "cg21597649": 6793,
      "cg12564962": 6794,
      "cg04491443": 6795,
      "cg12073949": 6796,
      "cg23877385": 6797,
      "cg17813891": 6798,
      "cg24947394": 6799,
      "cg03808835": 6800,
      "cg19969873": 6801,
      "cg20728639": 6802,
      "cg12532169": 6803,
      "cg13383490": 6804,
      "cg13320683": 6805,
      "cg10883352": 6806,
      "cg26794638": 6807,
      "cg17439694": 6808,
      "cg05593780": 6809,
      "cg27525902": 6810,
      "cg09633588": 6811,
      "cg24356544": 6812,
      "cg03923934": 6813,
      "cg16464322": 6814,
      "cg14426525": 6815,
      "cg12650635": 6816,
      "cg23128146": 6817,
      "cg12241125": 6818,
      "cg11654737": 6819,
      "cg07484450": 6820,
      "cg07829804": 6821,
      "cg23481221": 6822,
      "cg12331389": 6823,
      "cg07389922": 6824,
      "cg11626791": 6825,
      "cg09819495": 6826,
      "cg13967780": 6827,
      "cg09729918": 6828,
      "cg06151165": 6829,
      "cg17971003": 6830,
      "cg27341860": 6831,
      "cg14545899": 6832,
      "cg07437033": 6833,
      "cg10978355": 6834,
      "cg09214551": 6835,
      "cg27090024": 6836,
      "cg20673481": 6837,
      "cg21379309": 6838,
      "cg18752854": 6839,
      "cg13959523": 6840,
      "cg26791905": 6841,
      "cg25227148": 6842,
      "cg16303562": 6843,
      "cg07611334": 6844,
      "cg25995460": 6845,
      "cg17891278": 6846,
      "cg00155485": 6847,
      "cg19355190": 6848,
      "cg12561748": 6849,
      "cg10837843": 6850,
      "cg19904463": 6851,
      "cg02019333": 6852,
      "cg13788301": 6853,
      "cg18335068": 6854,
      "cg10519140": 6855,
      "cg16101572": 6856,
      "cg26303908": 6857,
      "cg22496683": 6858,
      "cg15612927": 6859,
      "cg01112778": 6860,
      "cg19948014": 6861,
      "cg08314660": 6862,
      "cg08163803": 6863,
      "cg16173109": 6864,
      "cg26195812": 6865,
      "cg23070249": 6866,
      "cg25490411": 6867,
      "cg19280014": 6868,
      "cg13882267": 6869,
      "cg18932540": 6870,
      "cg16621987": 6871,
      "cg09601629": 6872,
      "cg14966252": 6873,
      "cg17346115": 6874,
      "cg17455591": 6875,
      "cg21112925": 6876,
      "cg26145228": 6877,
      "cg23320649": 6878,
      "cg17124700": 6879,
      "cg19754094": 6880,
      "cg07686479": 6881,
      "cg26825412": 6882,
      "cg02226697": 6883,
      "cg26533949": 6884,
      "cg24724583": 6885,
      "cg01405107": 6886,
      "cg13948784": 6887,
      "cg04008901": 6888,
      "cg21180599": 6889,
      "cg06507244": 6890,
      "cg26124016": 6891,
      "cg09514188": 6892,
      "cg21129531": 6893,
      "cg14617642": 6894,
      "cg04197135": 6895,
      "cg12838902": 6896,
      "cg12989650": 6897,
      "cg13828871": 6898,
      "cg15965913": 6899,
      "cg24833277": 6900,
      "cg19923326": 6901,
      "cg17726022": 6902,
      "cg26756862": 6903,
      "cg09325711": 6904,
      "cg20011974": 6905,
      "cg18333807": 6906,
      "cg19832721": 6907,
      "cg04936062": 6908,
      "cg13841804": 6909,
      "cg10028071": 6910,
      "cg13543096": 6911,
      "cg02449608": 6912,
      "cg04144768": 6913,
      "cg14600885": 6914,
      "cg20632573": 6915,
      "cg00582628": 6916,
      "cg17422427": 6917,
      "cg01567482": 6918,
      "cg16367027": 6919,
      "cg21116410": 6920,
      "cg17881637": 6921,
      "cg15769409": 6922,
      "cg06186808": 6923,
      "cg16418163": 6924,
      "cg10920427": 6925,
      "cg23555120": 6926,
      "cg23989635": 6927,
      "cg21880903": 6928,
      "cg06382459": 6929,
      "cg27285056": 6930,
      "cg02358761": 6931,
      "cg13550608": 6932,
      "cg03642518": 6933,
      "cg07707498": 6934,
      "cg24325790": 6935,
      "cg24424381": 6936,
      "cg23968678": 6937,
      "cg16904306": 6938,
      "cg04313552": 6939,
      "cg00818872": 6940,
      "cg08351105": 6941,
      "cg08388746": 6942,
      "cg19398446": 6943,
      "cg23851011": 6944,
      "cg20544605": 6945,
      "cg12066181": 6946,
      "cg24547948": 6947,
      "cg09869042": 6948,
      "cg04985146": 6949,
      "cg26706003": 6950,
      "cg07778029": 6951,
      "cg26985138": 6952,
      "cg24975769": 6953,
      "cg13097407": 6954,
      "cg16509045": 6955,
      "cg03152385": 6956,
      "cg04223844": 6957,
      "cg18022344": 6958,
      "cg21475255": 6959,
      "cg23185402": 6960,
      "cg22139878": 6961,
      "cg11181795": 6962,
      "cg06433995": 6963,
      "cg11880892": 6964,
      "cg02727285": 6965,
      "cg20200335": 6966,
      "cg17248183": 6967,
      "cg22721827": 6968,
      "cg14893163": 6969,
      "cg04055049": 6970,
      "cg03673470": 6971,
      "cg15021531": 6972,
      "cg19091474": 6973,
      "cg01999523": 6974,
      "cg21264329": 6975,
      "cg24297976": 6976,
      "cg26465611": 6977,
      "cg07310951": 6978,
      "cg17108383": 6979,
      "cg00848397": 6980,
      "cg21289015": 6981,
      "cg15584630": 6982,
      "cg15645784": 6983,
      "cg12685200": 6984,
      "cg12002314": 6985,
      "cg25093045": 6986,
      "cg19224837": 6987,
      "cg25563642": 6988,
      "cg17145806": 6989,
      "cg22936016": 6990,
      "cg02422694": 6991,
      "cg11649825": 6992,
      "cg11117707": 6993,
      "cg06470552": 6994,
      "cg11953334": 6995,
      "cg27445265": 6996,
      "cg07022885": 6997,
      "cg23521281": 6998,
      "cg02620769": 6999,
      "cg08853659": 7000,
      "cg12888961": 7001,
      "cg16534233": 7002,
      "cg22917487": 7003,
      "cg11178443": 7004,
      "cg22232206": 7005,
      "cg06106793": 7006,
      "cg21333964": 7007,
      "cg11050116": 7008,
      "cg25572812": 7009,
      "cg13769204": 7010,
      "cg18712119": 7011,
      "cg16524139": 7012,
      "cg10673431": 7013,
      "cg00881370": 7014,
      "cg02615157": 7015,
      "cg13828839": 7016,
      "cg19515324": 7017,
      "cg19448829": 7018,
      "cg04683119": 7019,
      "cg18886444": 7020,
      "cg24903794": 7021,
      "cg15242570": 7022,
      "cg14610746": 7023,
      "cg04506628": 7024,
      "cg21850239": 7025,
      "cg13179915": 7026,
      "cg21440587": 7027,
      "cg11646704": 7028,
      "cg24266542": 7029,
      "cg09793001": 7030,
      "cg07652213": 7031,
      "cg16408394": 7032,
      "cg22578610": 7033,
      "cg20716945": 7034,
      "cg23062876": 7035,
      "cg09918674": 7036,
      "cg12506373": 7037,
      "cg21905630": 7038,
      "cg01770232": 7039,
      "cg14920334": 7040,
      "cg03098643": 7041,
      "cg24692716": 7042,
      "cg25243721": 7043,
      "cg16927136": 7044,
      "cg06398181": 7045,
      "cg00897329": 7046,
      "cg12205230": 7047,
      "cg23361608": 7048,
      "cg26174387": 7049,
      "cg05475277": 7050,
      "cg24205633": 7051,
      "cg04349311": 7052,
      "cg10069638": 7053,
      "cg22388943": 7054,
      "cg15701111": 7055,
      "cg14372394": 7056,
      "cg18841894": 7057,
      "cg07967308": 7058,
      "cg19986872": 7059,
      "cg19751300": 7060,
      "cg01615080": 7061,
      "cg08008562": 7062,
      "cg13645078": 7063,
      "cg00167504": 7064,
      "cg27138584": 7065,
      "cg06638966": 7066,
      "cg04405541": 7067,
      "cg27310686": 7068,
      "cg08722720": 7069,
      "cg12113819": 7070,
      "cg18119407": 7071,
      "cg15417244": 7072,
      "cg02813021": 7073,
      "cg23154272": 7074,
      "cg25690265": 7075,
      "cg15253672": 7076,
      "cg08355944": 7077,
      "cg08602689": 7078,
      "cg10299667": 7079,
      "cg20982583": 7080,
      "cg03804500": 7081,
      "cg02558133": 7082,
      "cg26911787": 7083,
      "cg02008416": 7084,
      "cg27116713": 7085,
      "cg20218060": 7086,
      "cg21686523": 7087,
      "cg24003542": 7088,
      "cg23834593": 7089,
      "cg24454435": 7090,
      "cg17217654": 7091,
      "cg25936385": 7092,
      "cg14317651": 7093,
      "cg01485998": 7094,
      "cg22605063": 7095,
      "cg00661202": 7096,
      "cg24355174": 7097,
      "cg03562120": 7098,
      "cg12370791": 7099,
      "cg23364287": 7100,
      "cg25261908": 7101,
      "cg22855405": 7102,
      "cg15628498": 7103,
      "cg16660041": 7104,
      "cg05261289": 7105,
      "cg03469082": 7106,
      "cg17518962": 7107,
      "cg08668790": 7108,
      "cg07808960": 7109,
      "cg09739907": 7110,
      "cg26454191": 7111,
      "cg01708964": 7112,
      "cg17756392": 7113,
      "cg17559711": 7114,
      "cg22199118": 7115,
      "cg25699533": 7116,
      "cg11655691": 7117,
      "cg07897193": 7118,
      "cg07865790": 7119,
      "cg11423990": 7120,
      "cg20525378": 7121,
      "cg26082838": 7122,
      "cg17018517": 7123,
      "cg01928902": 7124,
      "cg15836660": 7125,
      "cg17644867": 7126,
      "cg13985639": 7127,
      "cg17034082": 7128,
      "cg22272545": 7129,
      "cg04217178": 7130,
      "cg03860466": 7131,
      "cg16254764": 7132,
      "cg01795122": 7133,
      "cg02197293": 7134,
      "cg16722536": 7135,
      "cg10353436": 7136,
      "cg06790862": 7137,
      "cg26864028": 7138,
      "cg21296602": 7139,
      "cg11266874": 7140,
      "cg19401923": 7141,
      "cg26436158": 7142,
      "cg27472295": 7143,
      "cg24085258": 7144,
      "cg16276070": 7145,
      "cg07658718": 7146,
      "cg05497107": 7147,
      "cg08706258": 7148,
      "cg15517609": 7149,
      "cg10686044": 7150,
      "cg01108476": 7151,
      "cg06218044": 7152,
      "cg05313261": 7153,
      "cg09383789": 7154,
      "cg05747424": 7155,
      "cg22716127": 7156,
      "cg08697285": 7157,
      "cg23517677": 7158,
      "cg26578617": 7159,
      "cg20612559": 7160,
      "cg01353448": 7161,
      "cg22484980": 7162,
      "cg21023114": 7163,
      "cg26295990": 7164,
      "cg03962522": 7165,
      "cg19324627": 7166,
      "cg24254120": 7167,
      "cg00000292": 7168,
      "cg27088877": 7169,
      "cg10188131": 7170,
      "cg17586860": 7171,
      "cg11665562": 7172,
      "cg24207176": 7173,
      "cg17770886": 7174,
      "cg04066242": 7175,
      "cg05764607": 7176,
      "cg11228872": 7177,
      "cg15729423": 7178,
      "cg07879977": 7179,
      "cg17118262": 7180,
      "cg25535027": 7181,
      "cg12985418": 7182,
      "cg01808130": 7183,
      "cg09998591": 7184,
      "cg21416237": 7185,
      "cg08109815": 7186,
      "cg15372098": 7187,
      "cg16802646": 7188,
      "cg26982998": 7189,
      "cg16218424": 7190,
      "cg14993293": 7191,
      "cg13307384": 7192,
      "cg02968557": 7193,
      "cg26736450": 7194,
      "cg18127732": 7195,
      "cg22736107": 7196,
      "cg01139966": 7197,
      "cg01311285": 7198,
      "cg15796978": 7199,
      "cg03742214": 7200,
      "cg11951446": 7201,
      "cg25160554": 7202,
      "cg16862838": 7203,
      "cg04733388": 7204,
      "cg24497877": 7205,
      "cg25958361": 7206,
      "cg03396229": 7207,
      "cg15746187": 7208,
      "cg11481351": 7209,
      "cg15882999": 7210,
      "cg07945480": 7211,
      "cg01419679": 7212,
      "cg09497789": 7213,
      "cg11454415": 7214,
      "cg09451092": 7215,
      "cg24392274": 7216,
      "cg21565972": 7217,
      "cg21116314": 7218,
      "cg14076411": 7219,
      "cg06471905": 7220,
      "cg25429010": 7221,
      "cg26583078": 7222,
      "cg12262564": 7223,
      "cg03309967": 7224,
      "cg13415850": 7225,
      "cg06987504": 7226,
      "cg26591879": 7227,
      "cg15602969": 7228,
      "cg00630164": 7229,
      "cg21182454": 7230,
      "cg01081263": 7231,
      "cg26091688": 7232,
      "cg24441911": 7233,
      "cg23765993": 7234,
      "cg09441152": 7235,
      "cg23912823": 7236,
      "cg00528052": 7237,
      "cg07034269": 7238,
      "cg02876062": 7239,
      "cg23366119": 7240,
      "cg10568944": 7241,
      "cg08719486": 7242,
      "cg07819926": 7243,
      "cg06956646": 7244,
      "cg18950617": 7245,
      "cg20495040": 7246,
      "cg07955828": 7247,
      "cg23320056": 7248,
      "cg07342545": 7249,
      "cg24936630": 7250,
      "cg16154416": 7251,
      "cg22386774": 7252,
      "cg06636246": 7253,
      "cg04700814": 7254,
      "cg00615241": 7255,
      "cg07200897": 7256,
      "cg14546153": 7257,
      "cg25943131": 7258,
      "cg26823505": 7259,
      "cg18152517": 7260,
      "cg25974764": 7261,
      "cg24817430": 7262,
      "cg00037763": 7263,
      "cg04660410": 7264,
      "cg14102807": 7265,
      "cg00396163": 7266,
      "cg23599843": 7267,
      "cg18971054": 7268,
      "cg06862062": 7269,
      "cg22031736": 7270,
      "cg22168676": 7271,
      "cg08034216": 7272,
      "cg05144089": 7273,
      "cg05428978": 7274,
      "cg08525481": 7275,
      "cg07855056": 7276,
      "cg03843951": 7277,
      "cg12754854": 7278,
      "cg13619768": 7279,
      "cg23446109": 7280,
      "cg10742801": 7281,
      "cg02810773": 7282,
      "cg18463417": 7283,
      "cg13575604": 7284,
      "cg27308387": 7285,
      "cg10503234": 7286,
      "cg01466075": 7287,
      "cg14303330": 7288,
      "cg09748960": 7289,
      "cg01868128": 7290,
      "cg25545088": 7291,
      "cg05454446": 7292,
      "cg03630088": 7293,
      "cg27566805": 7294,
      "cg18938150": 7295,
      "cg20161089": 7296,
      "cg02010852": 7297,
      "cg09326546": 7298,
      "cg02060698": 7299,
      "cg15482690": 7300,
      "cg04005707": 7301,
      "cg00407150": 7302,
      "cg24929834": 7303,
      "cg03947362": 7304,
      "cg17920197": 7305,
      "cg23057732": 7306,
      "cg01796223": 7307,
      "cg21069922": 7308,
      "cg25478157": 7309,
      "cg11328875": 7310,
      "cg17740645": 7311,
      "cg14512008": 7312,
      "cg07944287": 7313,
      "cg19560287": 7314,
      "cg21577049": 7315,
      "cg03572913": 7316,
      "cg18959422": 7317,
      "cg10912268": 7318,
      "cg25277950": 7319,
      "cg14451276": 7320,
      "cg01013324": 7321,
      "cg25423576": 7322,
      "cg19738333": 7323,
      "cg06780358": 7324,
      "cg24683061": 7325,
      "cg08308257": 7326,
      "cg27650434": 7327,
      "cg05671018": 7328,
      "cg14898639": 7329,
      "cg24923526": 7330,
      "cg26251101": 7331,
      "cg01137198": 7332,
      "cg16280313": 7333,
      "cg01739167": 7334,
      "cg08361238": 7335,
      "cg08197201": 7336,
      "cg02399449": 7337,
      "cg02727423": 7338,
      "cg12780286": 7339,
      "cg24930915": 7340,
      "cg24012157": 7341,
      "cg11323230": 7342,
      "cg18230771": 7343,
      "cg02290509": 7344,
      "cg19430430": 7345,
      "cg21549904": 7346,
      "cg02831294": 7347,
      "cg12520111": 7348,
      "cg04770504": 7349,
      "cg16249454": 7350,
      "cg25803583": 7351,
      "cg25082710": 7352,
      "cg18043455": 7353,
      "cg03658707": 7354,
      "cg19510698": 7355,
      "cg19421752": 7356,
      "cg15337055": 7357,
      "cg15185794": 7358,
      "cg09188980": 7359,
      "cg01419479": 7360,
      "cg04517429": 7361,
      "cg16829450": 7362,
      "cg21973517": 7363,
      "cg06349174": 7364,
      "cg16413535": 7365,
      "cg19831575": 7366,
      "cg03817621": 7367,
      "cg15334028": 7368,
      "cg04513728": 7369,
      "cg04947578": 7370,
      "cg26153642": 7371,
      "cg11368791": 7372,
      "cg01320040": 7373,
      "cg09615982": 7374,
      "cg08961832": 7375,
      "cg16408565": 7376,
      "cg18692273": 7377,
      "cg15781625": 7378,
      "cg13704403": 7379,
      "cg12032049": 7380,
      "cg10475433": 7381,
      "cg13946500": 7382,
      "cg17115258": 7383,
      "cg03125090": 7384,
      "cg08535373": 7385,
      "cg13650689": 7386,
      "cg21546057": 7387,
      "cg08395706": 7388,
      "cg26354398": 7389,
      "cg26620959": 7390,
      "cg08803144": 7391,
      "cg11206667": 7392,
      "cg05435853": 7393,
      "cg01275830": 7394,
      "cg00186954": 7395,
      "cg06421707": 7396,
      "cg08524525": 7397,
      "cg18338296": 7398,
      "cg20737712": 7399,
      "cg12004730": 7400,
      "cg19075838": 7401,
      "cg09322949": 7402,
      "cg04103317": 7403,
      "cg23780937": 7404,
      "cg07525077": 7405,
      "cg02936872": 7406,
      "cg03373080": 7407,
      "cg14178895": 7408,
      "cg17896249": 7409,
      "cg13250711": 7410,
      "cg19205533": 7411,
      "cg01957330": 7412,
      "cg10498963": 7413,
      "cg22082462": 7414,
      "cg17749384": 7415,
      "cg26709950": 7416,
      "cg12246527": 7417,
      "cg26212924": 7418,
      "cg23996306": 7419,
      "cg20536369": 7420,
      "cg23832061": 7421,
      "cg20059151": 7422,
      "cg23683201": 7423,
      "cg06095560": 7424,
      "cg11896345": 7425,
      "cg23807009": 7426,
      "cg24417499": 7427,
      "cg02555579": 7428,
      "cg26450769": 7429,
      "cg13391235": 7430,
      "cg10249734": 7431,
      "cg21494337": 7432,
      "cg13417824": 7433,
      "cg14269514": 7434,
      "cg20793071": 7435,
      "cg18170080": 7436,
      "cg11795262": 7437,
      "cg20164558": 7438,
      "cg02603366": 7439,
      "cg23866755": 7440,
      "cg11341528": 7441,
      "cg26410550": 7442,
      "cg23517548": 7443,
      "cg11037787": 7444,
      "cg08404227": 7445,
      "cg03513363": 7446,
      "cg02441831": 7447,
      "cg18801292": 7448,
      "cg08887137": 7449,
      "cg01687711": 7450,
      "cg20727362": 7451,
      "cg15376097": 7452,
      "cg23214764": 7453,
      "cg21367957": 7454,
      "cg22778180": 7455,
      "cg17738133": 7456,
      "cg03298413": 7457,
      "cg24001070": 7458,
      "cg18464559": 7459,
      "cg25802424": 7460,
      "cg21351102": 7461,
      "cg07295092": 7462,
      "cg13633026": 7463,
      "cg15831452": 7464,
      "cg19447966": 7465,
      "cg18304195": 7466,
      "cg08229627": 7467,
      "cg19216839": 7468,
      "cg18697049": 7469,
      "cg17582250": 7470,
      "cg12370884": 7471,
      "cg21491028": 7472,
      "cg05768141": 7473,
      "cg26232558": 7474,
      "cg22992570": 7475,
      "cg10313093": 7476,
      "cg26697117": 7477,
      "cg11566244": 7478,
      "cg04355435": 7479,
      "cg18533466": 7480,
      "cg25544551": 7481,
      "cg01120307": 7482,
      "cg15643724": 7483,
      "cg08766742": 7484,
      "cg27403635": 7485,
      "cg00156744": 7486,
      "cg24758027": 7487,
      "cg01481441": 7488,
      "cg09464487": 7489,
      "cg13117105": 7490,
      "cg23796040": 7491,
      "cg08296824": 7492,
      "cg03856801": 7493,
      "cg17964955": 7494,
      "cg22571530": 7495,
      "cg02034222": 7496,
      "cg18145683": 7497,
      "cg10343901": 7498,
      "cg13801381": 7499,
      "cg16579101": 7500,
      "cg16417437": 7501,
      "cg03663215": 7502,
      "cg14640481": 7503,
      "cg16159313": 7504,
      "cg24484103": 7505,
      "cg05822100": 7506,
      "cg18472228": 7507,
      "cg08788717": 7508,
      "cg14175593": 7509,
      "cg14967972": 7510,
      "cg02456292": 7511,
      "cg13156411": 7512,
      "cg04062907": 7513,
      "cg10261191": 7514,
      "cg19863740": 7515,
      "cg27403822": 7516,
      "cg14074431": 7517,
      "cg00288562": 7518,
      "cg20376899": 7519,
      "cg03898365": 7520,
      "cg17992056": 7521,
      "cg17256555": 7522,
      "cg10830758": 7523,
      "cg19318326": 7524,
      "cg02686769": 7525,
      "cg04619381": 7526,
      "cg00223186": 7527,
      "cg25055403": 7528,
      "cg13548361": 7529,
      "cg12376277": 7530,
      "cg24051818": 7531,
      "cg20644453": 7532,
      "cg07857181": 7533,
      "cg24710073": 7534,
      "cg11099899": 7535,
      "cg12238343": 7536,
      "cg06840801": 7537,
      "cg00424946": 7538,
      "cg13744070": 7539,
      "cg02503850": 7540,
      "cg23365832": 7541,
      "cg12111714": 7542,
      "cg04836786": 7543,
      "cg07864189": 7544,
      "cg26387998": 7545,
      "cg20142224": 7546,
      "cg10174864": 7547,
      "cg19676312": 7548,
      "cg15100639": 7549,
      "cg15780361": 7550,
      "cg03878377": 7551,
      "cg12484193": 7552,
      "cg00615377": 7553,
      "cg02949544": 7554,
      "cg19305227": 7555,
      "cg16758041": 7556,
      "cg15979932": 7557,
      "cg16188038": 7558,
      "cg21540749": 7559,
      "cg15467759": 7560,
      "cg06953304": 7561,
      "cg18331396": 7562,
      "cg18222235": 7563,
      "cg26790132": 7564,
      "cg23508052": 7565,
      "cg24292612": 7566,
      "cg12914062": 7567,
      "cg16664233": 7568,
      "cg18466173": 7569,
      "cg05382565": 7570,
      "cg02989257": 7571,
      "cg02357714": 7572,
      "cg16609872": 7573,
      "cg24523000": 7574,
      "cg18504532": 7575,
      "cg20637800": 7576,
      "cg10194829": 7577,
      "cg24362016": 7578,
      "cg19585196": 7579,
      "cg11064206": 7580,
      "cg20451369": 7581,
      "cg20011352": 7582,
      "cg06899802": 7583,
      "cg13834567": 7584,
      "cg22476295": 7585,
      "cg18138552": 7586,
      "cg03427564": 7587,
      "cg25163476": 7588,
      "cg14213992": 7589,
      "cg19317715": 7590,
      "cg04960951": 7591,
      "cg20337385": 7592,
      "cg21753834": 7593,
      "cg16797831": 7594,
      "cg18090228": 7595,
      "cg10605520": 7596,
      "cg13509147": 7597,
      "cg05163348": 7598,
      "cg22732672": 7599,
      "cg22185378": 7600,
      "cg04495969": 7601,
      "cg20269976": 7602,
      "cg22640452": 7603,
      "cg03453449": 7604,
      "cg15604467": 7605,
      "cg16332060": 7606,
      "cg18690395": 7607,
      "cg06088032": 7608,
      "cg27254601": 7609,
      "cg20740029": 7610,
      "cg11375475": 7611,
      "cg12820481": 7612,
      "cg19007602": 7613,
      "cg17872064": 7614,
      "cg15911500": 7615,
      "cg24041995": 7616,
      "cg11308840": 7617,
      "cg20095587": 7618,
      "cg26024206": 7619,
      "cg12113932": 7620,
      "cg01620308": 7621,
      "cg05409601": 7622,
      "cg26511075": 7623,
      "cg27261136": 7624,
      "cg05232067": 7625,
      "cg22419075": 7626,
      "cg09053680": 7627,
      "cg11489580": 7628,
      "cg00613255": 7629,
      "cg09529667": 7630,
      "cg12555907": 7631,
      "cg16713727": 7632,
      "cg14850026": 7633,
      "cg03289369": 7634,
[...]
